[PAD]
[UNK]
[CLS]
[SEP]
[MASK]
!
"
#
$
%
&
'
(
)
*
+
,
-
.
/
0
1
2
3
4
5
6
7
8
9
:
;
<
=
>
?
@
A
B
C
D
E
F
G
H
I
J
K
L
M
N
O
P
Q
R
S
T
U
V
W
X
Y
Z
[
\
]
^
_
a
b
c
d
e
f
g
h
i
j
k
l
m
n
o
p
q
r
s
t
u
v
w
x
y
z
{
|
}
~
£
¥
§
©
ª
«
¬
®
°
±
º
»
¾
¿
À
Â
Æ
Ç
È
É
Ê
Ë
Ì
Î
Ï
Ô
Ù
Ú
Û
Ü
Þ
ß
à
â
æ
ç
è
é
ê
ë
ì
í
î
ï
ô
ù
û
ü
þ
ÿ
Œ
œ
Ÿ
Ǿ
А
Б
З
И
а
б
е
з
и
р
с
ி
ಫ
ೊ
೾
෤
෫
ຩ
ຬ
຾
༱
—
‘
’
“
”
„
•
€
™
■
□
▲
►
▻
▼
◄
◦
★
☆
♦
✓
❖
『
뫜
뫞
쪬
２
Ｂ
ｂ
##r
##a
##e
##d
##l
##O
##o
##U
##è
##g
##s
##n
##t
##i
##k
##w
##y
##S
##u
##ï
##à
##c
##b
##m
##T
##v
##é
##R
##N
##f
##4
##ë
##1
##8
##9
##M
##p
##j
##î
##Ù
##H
##E
##G
##È
##K
##I
##B
##C
##q
##©
##ç
##â
##£
##W
##h
##Q
##É
##Ï
##ê
##J
##ù
##ü
##A
##X
##z
##L
##Y
##5
##2
##6
##ô
##x
##P
##F
##D
##0
##Î
##û
##V
##À
##Æ
##7
##■
##Û
##3
##Ë
##ÿ
##Ü
##Ô
##œ
##ß
##®
##Ê
##Â
##™
##°
##Ç
##Z
##Œ
##¥
##€
##±
##♦
##Ÿ
##æ
##★
##☆
##▼
##□
##►
##❖
##✓
##◦
##▲
##е
##Ì
##б
##Þ
##Ú
##Ｂ
##¾
##ຬ
##í
##а
##ｂ
##ì
##◄
##þ
##෤
##Ǿ
##º
##es
##nt
##on
de
##ou
##er
##re
##ai
##an
##ar
##is
##le
##ent
##ti
qu
la
##ur
##en
##ne
##te
et
le
##it
##or
##our
##om
##in
##ant
les
##qu
pr
##ie
en
au
##tion
##al
##il
des
##us
##ait
##ce
##el
##au
##ment
##as
du
##me
##oi
##és
##st
par
##ont
##ri
##ais
##ans
##ch
##ra
un
##res
av
que
##ous
dé
##et
##se
##li
il
##at
est
##eu
com
ét
qui
##ons
ch
une
##ci
##ée
re
##ran
##de
se
pour
##ag
##ation
##tre
##ui
##que
##os
dans
pl
##mp
##ol
##di
in
con
tr
##ouv
##ér
##lle
##les
##ier
pas
##ue
ré
##ion
##ff
pro
sur
##ir
##ab
##ère
##urs
ne
Le
##ès
##ec
##aire
##ois
##am
##ort
##pp
##end
##ux
##out
##ers
an
di
ex
##ien
ce
##ut
##ot
ar
plus
##ain
##ac
##ve
##ille
##pr
##oir
##ure
##and
##ité
ou
##00
##si
La
##ré
on
son
ac
si
##onn
##ge
sa
##un
##aux
##én
##ist
##ul
##ette
##elle
##ale
##mb
ser
##ces
##ro
avec
été
su
##té
##ard
aux
ont
Ch
##ours
##aient
Par
nous
##ig
##oy
##ic
##che
##ées
##ert
Les
ent
tout
##id
cont
sont
##mes
##age
50
Il
##iss
##ine
pu
##ques
##ll
comm
mar
fr
##ond
##ati
pré
##ap
##ance
##ES
int
##ens
##tt
app
##eur
elle
##mi
18
ses
cette
li
peu
##lé
comp
as
lui
##bre
##ay
pre
mais
fran
##ins
ad
##bli
##onne
dis
##cl
te
or
fait
so
vi
##oup
##tions
##vi
vous
Paris
es
##oc
##aint
##tes
avait
10
était
che
mê
19
##able
##op
gran
##ill
##teur
prés
##ations
mo
rue
leur
ces
##ord
##co
deux
##aires
dép
##uit
cons
nom
##ad
me
##ise
aut
##ts
Mar
##ique
être
bien
Fran
##use
##tu
##eau
res
##aine
tra
##ON
##ence
##av
min
##près
comme
tou
##ter
même
##pé
je
##ants
##man
no
On
##eux
11
do
po
##cu
gén
Et
##onc
imp
##gn
##ante
##mé
sans
ab
ma
##pu
parti
##cs
##éd
##ble
quel
##ouver
##iè
##dre
dev
jour
ter
Je
##nes
dont
for
tous
##ER
ra
##ii
où
##ments
ils
##ieu
##oul
##ru
000
##érie
25
sui
15
pri
ai
nouv
##ren
##ét
##fi
##ég
##AN
Un
vo
##ass
##oire
##omp
##ction
pe
der
ment
per
##ors
faire
##IS
##min
##ace
heur
ass
grand
gr
##ress
ju
##ang
ti
ans
sous
##mps
acc
##éra
après
am
##are
dire
att
DE
En
##agn
##ail
éc
##pos
heures
mon
rés
ann
Saint
entre
très
mil
##uer
##mand
contre
donn
##tr
##ver
##AR
Au
ca
emp
dit
cl
ag
12
##teurs
An
aur
aff
##vre
20
##ct
cour
##iers
##EN
ci
cel
mal
##ong
France
30
ob
##OU
##em
man
##og
ren
##aut
##par
##era
##aiss
##vers
##iste
##nement
##ieux
car
pos
##um
##éral
##ière
##çais
##ph
br
dés
hom
##uss
jus
##tin
##mbre
off
##ats
dern
##enir
##ues
eff
##jet
mé
col
##endant
##isse
cr
Mais
##oint
##ères
leurs
##ici
##ies
##ente
##core
là
seu
port
aus
repr
déc
##lement
##tement
##ôt
publi
ins
##if
pay
De
Al
##rent
gouver
##IN
part
##endre
##agne
##vent
al
francs
encore
jeu
rec
pers
co
fer
sec
peut
##ains
cor
##oule
##lè
##tte
avoir
13
exp
##ing
Ce
##ves
trois
##aî
##eure
autre
sera
sé
Mme
##elles
##erie
poli
##roit
pass
##RE
ouv
général
##im
mati
inter
nos
présid
75
fin
16
##orte
##tique
##ta
mes
Qu
##ches
Com
hier
toutes
lieu
fa
##tres
soir
14
##gl
##TI
##ges
ri
##ête
sou
##ures
déf
##ût
im
##oute
##vé
notre
##LE
##lles
toute
enf
##jour
ques
temps
ni
##ances
##éri
aussi
##cher
trav
eu
env
##itu
all
##puis
ret
##ions
cent
arri
point
conf
##rait
##pt
17
gar
fi
##cc
rép
##insi
##ales
fut
français
hui
Ar
##ission
tion
##lo
coup
rapp
char
mi
##ém
peti
conc
##istes
##art
##lan
##asse
##TE
##ition
##ez
##istre
##enu
##oci
trouv
Nous
##rib
##ose
ép
matin
nombre
##omb
##rit
prin
rég
cha
prix
##ob
##hé
pris
autres
##seil
##du
gra
##ult
##ités
éle
##mer
##enant
##ole
mont
pren
##aud
##été
quelques
##titu
##oix
moins
##all
mois
jours
##dic
##ric
In
cours
rel
Ma
pres
avant
sal
##ages
##olu
##ner
guer
arr
ainsi
##ud
gouvernement
inf
##gé
conn
long
##int
heure
##oin
pouv
président
##antes
journ
##rai
40
##fs
prop
soci
##uses
cap
né
cert
##ché
##mande
non
##êt
ministre
rem
##oli
##alité
vers
##ambre
##cien
fem
##ate
##ieurs
droit
décl
##cip
beau
prem
guerre
##ger
Une
depuis
soit
##cid
tu
Con
##ler
ég
prof
inst
##ourn
##jourd
st
pays
##rer
grande
demand
rev
Du
Se
##ables
21
vie
place
##pec
##ade
sy
mer
##ret
cet
##RI
servi
##ls
Re
vis
chez
Or
puis
##aill
##lic
##endu
présent
##igne
ph
ind
100
Dans
MM
##mière
##uite
asse
60
inc
déj
Pour
##cle
##rier
préc
##la
Si
##lég
##amb
##illes
ver
fois
LA
Ré
##lu
déb
##iti
22
dou
##duit
##vant
##ire
étran
##gan
trans
devant
mai
cin
loi
som
##quel
réun
##rés
##illet
ay
fort
##jours
indi
45
Elle
##bles
jusqu
Ber
disc
##est
##rie
##aille
##mis
avons
faut
##aul
##ents
lég
##tal
##AL
##ourg
nation
vient
Mont
23
ceux
##iens
##ils
arti
représ
##ia
diff
##IL
##ense
##AU
##né
étaient
cré
donc
bon
##lier
##des
toujours
##pe
met
##dit
##cep
##èrent
kil
mom
rien
##aison
fl
hab
suite
##publi
quat
reç
év
500
##ines
ta
sol
##mée
##ement
lib
déjà
##erv
aujourd
homme
commun
sent
##ze
not
sign
voy
##enue
##ss
vol
près
ap
##he
##main
PAR
##iter
##mbl
##une
##onnes
mort
##aisse
fé
35
minist
##vis
esp
##tel
fond
##ps
oc
fai
##ess
##ienne
serait
moment
const
bat
va
moi
demande
St
organ
mis
sc
##ib
voul
at
##cess
##quer
situ
##ttre
##alement
premier
jou
80
moy
conseil
adress
##vement
##az
déclar
ordre
bar
##ame
dernier
tant
première
24
##ath
Alle
avaient
can
31
Etat
##ature
##aise
Ju
doit
##oût
question
ayant
##ite
pendant
nouveau
##cri
elles
##ration
proc
##vres
etc
##tit
femme
##ich
spé
celui
Lou
Mlle
vic
rep
##UR
##eaux
##val
Tr
représent
cas
##IE
##ième
tre
celle
Jean
pai
28
alle
##IT
##UE
Cette
##orm
##qué
cher
milli
ban
maint
Des
##ram
##ign
##mble
##be
propos
effet
cir
##OR
art
état
##ari
pa
lit
cri
direc
étab
##ètres
##amais
##ots
27
##uis
ven
voir
ville
##OM
Dé
##gne
trop
##anv
##rée
##qui
cô
commer
##ril
##esse
pat
##iel
dom
id
Car
##ug
hommes
partie
dém
##od
veu
doc
##tif
projet
##voir
##nent
Gran
##gent
##isme
quatre
##ises
##enne
cond
capit
milit
piè
œu
##AT
##ront
26
##aines
eux
##ieur
reg
##anc
préf
##sible
proch
ouvri
##gr
empl
aura
##OUR
éch
##ENT
té
import
succ
chef
nouvelle
##NE
intér
II
##vo
ord
seront
##lus
er
jeune
Char
LE
##ron
quand
monde
bles
princip
sub
fam
ancien
lors
##pte
personne
tit
##CH
##usse
##gle
mun
votre
##TION
Soci
cela
##éren
tour
Es
cou
comb
op
##aître
dess
assez
fra
##issement
##tant
##ili
##ds
alors
##rig
pens
##ile
##çon
189
tes
Ren
actu
##illeurs
jamais
appel
midi
Pri
Th
laiss
plusieurs
aurait
politique
##onde
trait
##héâ
fais
CH
##ma
##tier
##ern
##ry
##iques
maison
191
donner
##érale
supp
29
contin
hô
##mple
service
##ué
public
pi
atta
##port
quelque
Chambre
##lin
ET
##ore
dix
bonne
##ène
190
##let
consid
porte
spéci
rapport
rent
année
remp
sau
##quet
commission
##isation
réf
lu
192
répond
plac
Comp
donné
voit
men
##coup
##ingt
circ
##ouss
oct
rend
suiv
##lie
mars
cinq
##ème
avril
##CE
obli
ple
souv
prendre
70
chaque
série
##isé
##cier
##len
Br
Gu
travail
##II
bas
##vée
Pe
occu
vale
##rique
##ellement
autor
32
aj
##oux
##fl
juillet
##aît
##resse
##RAN
##SE
##minist
lo
soi
##ice
main
Su
##orti
ve
Nord
Bar
##act
##usement
##fin
cal
dét
angl
Sa
Société
colon
##anvier
33
Ex
##urent
##va
##ende
eng
gu
##raph
41
##ient
us
nécess
##erne
bou
vue
##aute
assur
##RA
ext
##cun
nu
abs
##oles
mus
##sions
DU
##anger
particu
##ane
##cole
No
déput
Ban
sup
Ge
90
37
ess
contr
écl
Louis
48
##obre
rou
##ières
Ne
rece
août
ici
Lé
nuit
beaucoup
Vous
ir
PARIS
da
Ro
ref
seulement
voix
##oit
ense
tomb
étrang
corps
##mbres
Ils
##ft
##ustr
##olution
##io
##oss
feu
diman
Pr
##œur
bure
##oupe
situation
trib
##onneur
Hen
na
compte
maj
193
##quelle
43
##érieur
réc
tions
47
##ange
##prit
dès
##ât
inté
188
accord
##ierre
##tiques
Ly
mat
plu
Lond
vrai
tri
form
laquelle
maî
Di
obs
##oici
Mal
##ève
ém
##magne
Cha
##fe
sait
reconn
Bour
administ
bless
##RES
##ande
police
Co
seul
51
Cour
##péra
reste
##héâtre
vér
divers
187
dispos
55
##roy
mari
##ôle
Après
##air
38
atte
lé
juin
comte
fonc
sujet
##rage
##gré
française
petit
rap
affaires
offici
##ns
42
##ys
arrê
dra
dernière
armée
mod
##éré
##oud
siè
##once
49
cé
##bourg
Londres
##ni
##ctions
condi
ait
Cl
44
##cune
Tout
fille
gl
neu
honneur
##ateur
ailleurs
36
##pect
Est
quar
##pendant
puiss
46
##publique
##amment
ii
raison
##iser
##iles
##agnie
fit
succès
ru
bal
générale
nature
##ect
##oupes
tent
millions
Bel
##ilité
tir
octobre
Seine
aucun
instru
Allemagne
résult
##rét
##bert
prom
bre
##itions
amé
Rou
social
suff
doute
Sal
AU
Ces
mand
six
Ca
pop
accomp
Prix
##ptembre
déce
assist
vingt
action
bes
membres
ens
parf
DES
esprit
produit
##RO
dév
##iller
cer
exé
##lir
salle
##ime
abord
pouvoir
janvier
Paul
conv
39
décid
##âte
mor
##ome
##ression
##ide
occ
##icip
côté
##lière
Col
##ards
Gr
tête
mieux
boule
roi
##ast
reçu
##ville
lie
ia
##tout
suis
##alais
mètres
fix
envoy
##ieuse
paix
##one
journal
##CI
quit
écri
##AI
##pond
##AG
nouvelles
##ple
march
##els
disp
esc
sais
Mi
##quis
##êts
Ph
but
##cé
##cre
huit
ant
lettre
65
Conseil
34
jeunes
Mon
##vin
##roi
##tice
Pro
Aut
##éro
##atis
terre
##ME
##iv
obt
##asion
Français
Av
Ital
##ération
##éné
envir
blan
##clam
##terre
appar
Angle
##vrier
chambre
juge
Ad
offic
Cor
##uire
##AS
ach
##uré
table
aucune
##ttes
loc
lar
cpt
opp
Geor
Sur
bl
décembre
##mment
ministère
major
##oh
également
allemand
septembre
dépar
propri
œuvre
sac
dimanche
##OT
52
perme
séance
eau
enfants
##ah
pie
##QUE
employ
##vard
commerce
popul
impos
##érieure
grands
##gu
##ète
nove
belle
##AIS
##EL
fils
sem
pron
##ber
##OL
##ention
corres
camp
lut
travaux
##ustrie
##uve
ie
mettre
gros
parce
vendre
##ardin
##médi
équi
remar
##ême
sp
doi
secrét
République
aug
##tie
LES
85
##ras
Pierre
manif
##erté
##ndic
ouvriers
##DI
##adi
hist
prog
prob
##ative
famille
200
por
trouver
cause
##ades
surtout
command
ble
dist
ten
##érer
##gue
##nte
cab
donne
Lu
##urop
voyage
publique
##ris
rendre
##auv
pare
seule
Banque
nég
pours
prochain
écrit
Bou
##tor
font
étu
##onom
expé
affaire
compren
petite
##érence
délég
##iment
##ager
municip
exer
##DE
occup
jet
##rs
mot
And
ensuite
expos
##oires
père
commen
Pl
mét
##ori
##ailles
sold
gens
deme
vot
dû
sort
article
novembre
peine
##glise
adresser
yeux
##onsieur
##cont
Esp
ligne
##US
militaire
##inet
##ateurs
tém
directeur
##êtes
##pl
fac
##èle
##nts
vu
personnes
somme
##orde
##oses
val
##mar
semble
ress
chose
##men
oblig
rè
trouve
ami
condam
anglais
Angleterre
Me
longue
intérêt
##mblée
##oiss
##ann
##ell
##icile
##ribu
avez
vent
pou
établ
##pi
nommé
##urant
liv
réunion
étant
dem
cul
moyen
exam
amb
emb
front
mouv
95
##ppe
53
##vid
inv
air
Per
##crip
classe
El
gau
##ramme
années
th
##inc
cam
##oure
compos
sens
##rat
##œu
février
##oign
occasion
Marse
intéress
##iennent
él
argent
##OI
##llement
Ville
objet
##rière
##cident
##ANT
ha
##its
Jac
rense
##iff
##yp
ouvert
sus
##ôme
prév
concours
##itation
demain
Russ
##ences
mêmes
EN
presque
constitu
Tous
##oie
##inaire
tend
##th
Ou
bureau
##ode
##pris
exe
confi
uti
##OS
troupes
enfin
force
##vait
acti
Del
commiss
##bl
faite
Cons
enne
trou
##otte
##undi
##édé
courant
sommes
##LES
##celle
##ède
correspond
##elo
##fic
Am
réal
retour
##bé
##ussi
Cré
devoir
mag
hon
vit
##pit
pièce
##ogne
mille
##cles
adop
##oncé
##ov
garde
terr
malh
sour
##ivers
élè
same
##atique
Mad
##ATION
##dition
##cteurs
gagn
##tent
##MENT
transport
62
##aissance
prince
parmi
##veur
Journ
sept
combat
Int
bord
qualité
possible
##avre
##ionn
eut
veut
bi
##êche
rév
déli
##orme
vois
##get
##mens
##fois
dépos
Lyon
complè
Vic
ur
tard
##él
##vient
chemin
##arm
préfet
##ach
sang
##vil
##erait
186
conditions
gouverne
chev
##aite
boulevard
Etats
termin
##ussion
##ites
##oni
bud
réser
quoi
##oins
route
##cul
pén
cat
rempl
pau
##mn
56
##eront
économ
Marie
volont
maintenant
##ception
##ral
viole
amis
##titude
Te
second
##âce
méde
docteur
secrétaire
Port
gare
nationale
Cr
##grès
consé
poss
liberté
54
AN
peuvent
grandes
avis
façon
##ln
##ilà
##iiii
Marseille
em
concl
loin
nombreux
nou
région
cœur
##ouvert
théâtre
##tien
As
##onst
sant
##gique
ferme
Grand
passé
béné
satis
vos
##AM
journaux
tribun
rendu
Be
##action
aller
Que
Beau
républi
mère
dessus
##EU
00
is
##nel
vente
départ
COM
marché
63
##aie
gard
élect
##IER
61
demi
##itable
Ac
##alités
titre
samedi
savoir
Tur
souff
faits
augment
##uil
sion
ton
##duction
prépar
fle
Jeu
cath
Fer
Ant
ajout
##ET
toi
enfant
destin
mains
syndic
Mor
discours
sorti
industrie
##rir
Henri
##cour
##ueil
lett
58
##roite
livre
##usé
opin
annonce
##oe
exc
garant
##étés
chant
poste
400
groupe
pap
##onie
MAR
début
attend
##cr
devait
semaine
relig
haut
commis
##cel
furent
cependant
##tesse
vert
gn
Voici
environ
lequel
pouvait
cli
certain
##ision
agit
député
gauche
suivant
champ
affir
travers
##uel
prend
effort
derniers
##dé
Mer
fourn
immédi
sû
##uest
##ONS
cad
mauv
##quoi
##ciens
fav
fab
acte
chac
Ed
Georges
del
Son
##cer
satisf
300
gen
57
##imes
hu
##ck
##lt
partir
défense
##xte
suc
presse
##temps
Europ
Deux
tel
Rob
##raient
habit
train
extr
87
##lique
crois
##rice
bois
appro
pièces
forme
rencont
##quent
Pa
##na
Vi
##quête
autant
##naires
##50
Gar
journée
télég
rom
officiers
celles
direction
##ié
discussion
extra
##lex
##rouv
59
##oll
serv
##rou
Vo
souvent
diri
én
Maur
valeur
##enus
ital
fonction
atteint
##issements
lés
81
choses
##ILLE
décidé
##ow
reti
Ouest
tran
##âteau
constat
##onse
pourrait
##itôt
défin
doivent
##AB
Union
Charles
prét
maire
cu
peuple
date
rie
##liers
##eurs
Journal
##mont
##AIN
républic
##oyer
exist
mesure
protes
##oque
net
##nelle
victi
longtemps
eût
meille
Bu
dispar
##crit
Russie
lettres
arrêt
entra
cit
budget
##aï
##vision
rôle
justice
Ser
67
comité
cur
malgré
Autri
oppos
dur
##oine
conse
Berlin
##quels
lundi
faci
##SS
dél
présence
##omm
arrêté
fil
bout
voulu
Bl
avenue
##nation
IN
rappel
##ablement
num
fig
besoin
lig
##este
New
RE
##vention
mob
intérêts
droits
##sion
##rant
caract
désir
Sé
##tive
73
mission
Man
vend
parle
considéra
quelle
pé
administration
femmes
petits
76
gé
72
recher
passer
Comm
##ifi
68
premiers
apport
Ab
Cas
##rest
Compagnie
roy
accep
hau
neuf
mise
imm
##can
##oré
##oth
candi
##olé
dre
instruction
certaine
auteur
it
cabinet
admi
##énat
##vés
temp
##ute
##AC
capitaine
66
Amé
comment
el
##ograph
Ass
don
mouvement
chiff
88
paris
Che
post
##ule
excelle
##ae
outre
##alent
##ession
##ault
tot
##app
Pas
marchand
64
Europe
bel
effec
société
83
71
lois
ris
##fr
##issent
Her
##érent
Crédit
Dieu
André
FRAN
##part
déclaré
##ares
##usion
##ira
Hô
##xe
##ano
grâce
##uy
voie
##UI
##AUX
Emp
##vité
points
Sy
##ju
tor
##iné
lou
renseigne
Léon
rapide
entend
danger
Ver
82
Bret
Cel
certains
##cut
##illon
##ident
Non
droite
détail
Opéra
face
##ip
péri
entière
Martin
Ja
libre
crédit
simple
Ger
quin
dég
change
milieu
Espagne
croy
UN
##rim
##uti
jeudi
avou
élé
dent
##cha
saur
to
programme
vieux
actes
national
moyens
78
finan
##édie
185
77
##ock
##indre
poursui
regard
##assade
hôtel
sorte
nouveaux
frapp
arrivé
Li
##ca
maître
##atif
■■
histoire
bruit
##orable
trouvé
marine
lieut
sout
bu
##IC
93
précéd
dè
Italie
bour
##âti
commissaire
##bes
##ouse
##car
Mé
ae
coups
candid
Sch
paraît
officie
troisième
éner
Ag
##iez
autom
##ige
##ection
provin
##oise
organis
ll
malheure
plais
symp
##rées
resp
afin
Rome
passe
cess
##ulture
voi
kilos
##éch
franco
bénéfi
##lant
##acle
##iner
##VE
prê
telle
##ini
idée
##ars
catholi
##ols
venir
traité
kilom
chap
signal
##ousse
tribunal
poi
améric
##atoire
Conc
##ément
##dis
dos
Bal
pen
desc
##att
##ume
vill
mardi
##ames
##issant
##rons
alli
Notre
militaires
ensemble
##fc
69
répar
auront
arrivée
professe
simp
fe
Bi
frais
pont
##fé
##omme
##chet
rac
meu
Quel
lang
##elopp
individ
##ichel
soirée
##ub
ments
##émie
##cin
##ènes
##urer
Comme
chem
##rt
commandant
##léans
##onné
négoci
étrangères
##duc
##chant
opinion
Jus
##TS
##credi
Mo
Quand
pied
contraire
appren
hi
##andis
##asses
##aude
trent
rest
noir
Cap
exécu
parler
vari
partis
vain
Can
Petit
##rient
foule
##crire
éclat
soldats
Vers
lorsque
nécessaire
sen
tenu
##éder
opéra
née
duc
cheval
plan
repro
##entes
##olog
sembl
74
Bo
faveur
aband
large
Pré
##éraux
aper
Puis
tin
Bon
ge
ES
Quant
bons
manifest
cru
rais
orig
esti
engage
##off
évé
##con
circul
habitu
Nouv
demander
Unis
##ereur
Orléans
colonel
connaître
600
diffic
amour
##ongr
école
##IV
questions
##fort
##anne
ign
faites
demandé
##gée
chacun
##lièrement
01
Bourse
##arde
Val
ft
vice
Fl
##IG
99
deuxième
exemple
gal
modi
##tié
##elon
150
Dou
illus
mesures
Hier
faisait
teur
réd
prison
concert
radic
Gaz
enquête
##ientôt
log
Borde
86
confiance
250
##ott
quant
Sar
ministres
Tour
accompagn
syst
continu
épre
##ak
##nce
92
SO
##rages
ger
##oration
auss
église
##utes
96
cote
89
services
soient
Den
##ège
notaire
end
indé
Enfin
##rav
##prise
84
majorité
##gés
musique
tenir
##QU
pourra
véritable
voiture
navi
vé
fall
##aitement
fera
arrond
actuellement
croire
##mettre
département
##rid
Franç
hum
##lent
##ainte
réclam
Pont
Ri
##eries
##ork
oubli
91
refus
associ
##oo
Roy
##atement
intérieur
##quelles
âge
##qués
bras
repren
Victor
Havre
circonst
fête
OU
##apon
institu
fonds
##èse
jur
ali
ambassade
##cur
##ly
chargé
##rale
spécial
sin
Bordeaux
députés
##abilité
cot
lutte
Sénat
aussitôt
##FF
##ray
os
grat
Jou
diverses
##ulté
800
prochaine
##ça
avance
vont
##rand
Blan
##cience
cuis
##nis
agré
distin
amen
AR
entendu
delà
rester
parole
différent
97
assemblée
étranger
##gie
cui
actions
nav
déclare
##ote
résultats
personn
fant
##olie
##AP
campagne
##pital
##INE
##ués
##ERS
tar
agents
##runt
répé
sav
conser
Imp
##ides
##ît
matinée
passage
camar
Ent
Plus
##ÉS
CON
94
##naire
arb
AL
##dent
Cal
appare
résultat
centre
manière
définiti
rét
##tiers
##issait
calme
cinqu
administra
Gal
##aume
prise
##ven
uns
lieutenant
chemins
Depuis
lorsqu
ache
ennemi
red
lè
Aujourd
tt
Palais
coll
vin
PRI
peint
auprès
époque
98
tient
liste
propriét
lour
##chi
##olon
scène
empê
##endra
entrée
Alg
entendre
ro
pouss
##assé
voici
recom
Rh
visite
Hôtel
accus
étudi
##rais
##igue
##vez
proposition
foi
Toul
choix
adresse
##gén
comtesse
##toire
laisser
##onte
vou
79
##abl
##née
##net
##oncer
##ocra
##af
spect
kilo
##mann
fré
##tifs
terrain
##ulg
##nd
magn
fou
venait
##ible
mén
renseignements
##quée
Lor
ly
venu
##ètre
##ône
York
##URS
vendredi
Jules
mou
arriver
##ruction
chefs
tourn
appl
vérité
Qui
Ecole
Rennes
forces
anim
heureux
##onner
##cie
dan
baron
appré
bientôt
porter
explo
grave
soup
dant
##més
mots
note
russe
Fin
stat
##tir
##elli
fus
notamment
Grande
internation
avenir
fau
lait
présente
##çons
municipal
brill
##ias
conférence
mande
marche
##je
vote
étrangers
##ication
##duis
Gen
##vet
nombreuses
##cription
Monsieur
Lo
##blie
Hu
tandis
##cesse
##ument
collè
af
siège
101
##assin
dén
valeurs
lin
##llerie
##ust
géné
fût
anciens
##illets
Sud
Fé
##pes
Autriche
charge
ora
conséqu
Cent
Cet
seconde
vas
Maurice
##EM
remb
trente
##lication
soli
Aux
respons
rele
Const
##ha
102
##érés
officier
agric
rê
##TES
ouver
autour
propre
course
Nor
Bretagne
##veill
ave
entraî
résist
ler
Bri
##aign
pourquoi
quartier
amende
décret
voud
présidence
expri
réponse
chois
titres
rait
régime
Fr
##OO
##agé
##reur
pauvre
##âche
veille
mém
indis
kilomètres
santé
faisant
coule
Bern
gré
haute
vant
avoc
absolu
##rence
Prés
fêtes
##yn
##uc
##adémie
##ina
chau
seraient
VEN
##lément
mauvais
mercredi
##çant
dipl
Trois
##éros
##OIS
Albert
##for
caractère
##léb
##aa
dépens
##MAN
château
##titut
unique
##œurs
Vienne
capital
##vue
instant
grève
bo
hos
##bi
Eg
Boul
Champ
particulier
ner
cant
exerci
bro
##ultés
maîtres
Maison
demie
##mières
finances
Ainsi
##rec
nord
gend
2°
souvenir
Dép
suivante
Jacques
François
##ignement
exac
mit
Bas
##arch
Midi
monsieur
armes
enc
##bon
ram
délic
103
##cture
êtes
tres
commune
partout
viennent
matérie
##ays
##aug
révolution
##line
##ALE
##échal
##osse
##rance
personnel
domicile
chasse
professeur
articles
membre
##nn
plein
obtenir
secours
four
##édération
##isl
citoy
disait
Alex
aide
184
bâti
##old
territ
Af
##UL
##yr
parc
exécut
Cont
##ji
##per
Roi
envoyé
espagn
court
##ennes
Is
permett
colle
correspondant
fid
plut
Sans
gui
Lég
##ION
Bert
triomp
assurer
Cher
Ins
opé
procès
##her
##mm
taire
tur
développ
système
##iral
##ani
Mgr
position
provo
âgé
beaux
chevaux
compar
Po
##mine
mu
télégraph
##ates
nes
décision
travaill
froi
connaiss
méd
##to
dépl
pensée
civil
politiques
SE
usage
meur
brit
compris
volu
siècle
##nés
##nements
avais
épr
Neu
travaille
111
##uste
##isée
univers
accident
##ifique
##OB
##atives
##ita
adj
môme
appli
##rez
autorité
lignes
Ha
##érité
influ
essay
croit
emploi
sén
##rine
prit
rang
fon
PRIX
Jose
##ôts
expéri
compagnie
lende
faute
05
quai
mine
contra
Mess
##érat
certaines
DÉ
##TEL
##deur
##ieuses
audi
Pi
Peu
Robert
##acement
teurs
ture
auraient
numéro
For
paroles
##CES
##do
##andre
Mag
##tés
expli
Aug
termes
chance
céléb
allait
Er
allemande
##êque
importance
##veille
Ra
ingén
facile
terme
pleine
##riot
édi
Michel
bra
efforts
organisation
pense
sud
##OUS
recevoir
183
texte
##pend
hausse
remarqu
SI
dernières
Pol
connu
observ
##èce
Lau
égard
##gues
permis
prod
##hors
suivi
volonté
##der
publics
dimin
porté
##CHE
##enait
Loire
Ter
légère
automob
commence
Joseph
socialiste
lot
Académie
cents
##arr
plutôt
produits
##GE
interpr
livres
puisse
lim
##oph
##ertes
SU
sépar
hyp
##isc
pes
##ILL
réserve
bureaux
rob
##ilier
##aval
plaisir
mach
gou
ges
PRO
consul
##tient
##chés
jardin
##isés
n°
forte
##leur
Jeanne
Mai
quo
hôpital
inspec
##ino
##ANS
##érant
##uits
Fau
améli
Théâtre
laisse
Nap
##fer
exig
disposition
##ga
immédiatement
120
pur
nant
blanc
selon
conseiller
crime
put
##anterie
frère
##ki
##ho
##ms
minutes
##met
spectacle
ot
empereur
portant
Aussi
##tienne
Mil
##avant
favor
enle
bonnes
preuve
perd
communi
##cine
sympath
population
##tait
##udes
Belgique
blessé
consac
AV
maisons
##cière
revue
suffis
##ries
voilà
##meu
Rue
Sim
pla
plupart
repos
##NES
section
hors
##èr
hy
avions
##ets
##ton
##ase
Allemand
##ambres
actuelle
##lande
##cessi
lement
##xim
pav
press
ordinaire
caus
retrouv
Nantes
##èques
auquel
##INS
Méd
rouge
##tine
dehors
mécan
##cy
couv
abbé
excl
blessés
ajoute
##rich
double
renv
nette
emprunt
hor
##jou
province
ouverte
##issance
reprise
##raite
juste
Jour
faud
genre
étude
super
##OND
veuve
perdu
##atiques
##CT
##oa
exception
Sainte
difficile
mur
##ERIE
##mile
Cam
Comité
Ecrire
lendemain
couvert
Mét
##MP
##asser
profit
prises
victoire
concur
mess
considérable
célè
attention
pourtant
servir
conduit
##ARD
##mond
appart
acqu
##rable
##rement
représentation
cér
commande
arrondissement
ei
##tip
principe
##son
quinze
artillerie
billets
baisse
##érences
trouvait
Dan
crise
##unis
cy
##sement
HO
##léph
clôt
##tition
Rom
suivre
##pin
progrès
rai
##uxe
aperç
généraux
extrême
##AV
Angl
Str
Us
veux
attitude
aim
##rop
##no
mour
conserv
##illé
concerne
##til
souver
Alors
présenter
##zaine
Expos
##tements
arm
resta
##érée
impossible
Off
ouvrier
lis
auto
pure
obtenu
##ination
##cée
détr
britann
##25
Chine
derrière
établi
idées
Pendant
initi
continue
congrès
##ider
Toute
##illy
##aro
vite
commerci
##lit
activité
Oui
manœu
soins
effectu
##UN
##pens
déter
exécution
nt
##rog
thé
110
donnée
##uves
##ey
conduite
lesquels
##mage
rav
Pal
patron
bate
complète
mandat
inform
puisque
Montmar
Tu
élections
Eglise
##cteur
achet
nour
scru
##itime
franc
délégués
Ang
eh
viv
##chestre
##gence
##UX
cérém
##uelle
marquis
prétend
annon
##ONT
dame
##ureur
Versailles
mariage
##pir
Ir
collab
##orer
Cours
Emile
complètement
gri
places
silen
advers
##IEN
##aye
Em
saison
##ël
##onnement
déclaration
ue
adopté
centimes
tenue
Peti
Gir
maréchal
amiral
hés
brig
##oirs
remer
noms
##orité
Min
dévou
problè
##onnier
diplom
condamné
atti
Pat
gaz
Asse
##usses
artistes
Nos
Ben
étend
déta
Ste
Voilà
##otion
senti
##UB
##inaires
##ompte
##cule
##nier
Gui
demeurant
dirige
prouv
mul
##ura
élèves
##vées
Clu
imag
##tl
##gi
venant
PE
profession
paraiss
œuvres
##hi
Dem
##rible
heu
ty
toile
##sine
circonstances
##demment
pal
opérations
##za
oui
employés
goût
avocat
lès
sacri
dî
##ka
détails
Concert
publie
chiffre
Mac
Bien
PL
lon
marqu
compagn
ça
provis
élég
##da
##pre
Cependant
guère
##land
ciel
âme
##ciers
soin
Cli
vive
montre
Montmartre
ray
##urg
profond
##iii
poids
parlement
Ec
##br
ouverture
représentant
expl
comptant
##ee
##DRE
180
lecteurs
premières
##AGE
médecin
réussi
Sc
Gén
Gre
entrer
obligations
île
##èvement
respect
ber
MA
victime
Marcel
##çait
##cide
Pét
puissances
Franc
##olit
util
Ros
arrêter
payer
Pre
##nie
chercher
magist
françaises
##75
confir
##dier
morts
Made
sentiment
ef
##iennes
chré
install
retraite
voitures
impéri
relations
comprend
réduit
##chement
démocra
##alog
pros
magas
Brest
prote
##ilités
saurait
impression
cre
Font
hect
drap
nier
##assi
##ensi
##arma
socialistes
##URE
palais
actuel
gne
##ban
##itaire
ral
eaux
vraiment
examen
##atin
équipe
Henry
##quie
Elles
dépêche
Fon
écoles
##OUV
saint
reine
##èque
##rite
##MENTS
Mau
Club
loy
##ape
fonctions
Brux
particulièrement
Prin
payé
rappelle
quitté
Là
##endie
Ses
règ
##ix
éviter
renouv
arrive
lord
Dame
régiment
##ïs
nouvel
##fier
malheureux
##ribution
ordres
ln
##onniers
filles
exercice
dispositions
##éris
subs
##geois
Fou
offert
petites
##of
villes
absolument
All
Ta
attendre
inj
régu
parlé
##esp
##chn
##ora
tait
sole
##ht
prol
Nation
##rection
Amérique
##PE
105
##90
officiel
regre
existe
##enti
témoign
##ution
pénét
extraord
nat
Dur
die
pit
annoncé
Guill
nécessité
offre
supérieur
##ONNE
appelle
##ara
ate
intention
##mo
Avec
my
##OC
##anes
lab
réce
Té
##lon
tort
##RÉ
présenté
division
Pau
joie
lecture
vap
##heur
propriété
Algérie
##don
##orie
Lab
plai
if
contrôle
##adies
App
établir
Sp
inqui
##aix
économique
Président
##40
belles
##ORT
unan
Rouen
élève
pratique
Hé
complet
éprouv
Japon
##aces
établissement
##vint
Nic
##IQUE
Van
embar
Elys
Tri
sir
##MB
convers
Parlement
##érit
familles
liqu
##mant
##nex
gent
placés
admis
##ttom
of
employé
parv
chauff
##veau
dir
doule
Constant
Stras
##tives
##Ue
merveille
taille
Bonne
##ailli
bor
laissé
Vale
René
Quelques
tué
malad
ouest
Ba
REN
respec
Mou
EX
infanterie
coi
élector
bourg
sérieux
##curité
répondre
lots
Trans
##chée
##reg
125
brû
Madrid
voté
propriétaire
Vie
ambassadeur
intro
##OURS
meilleur
peur
##TT
GRAN
base
Bru
fabric
remis
remplac
Mmes
##tière
bomb
ront
Pu
Orient
nécessaires
Bre
hiver
ee
anglaise
##MES
AB
Bruxelles
##fié
arme
##30
##ama
compli
irré
continuer
fortune
Exposition
Diman
fen
Vol
civi
##igné
Bé
##HE
Bor
particip
attaque
visage
Bois
chauss
compr
Juillet
drame
##mission
##lets
##titution
préoc
Française
##ouard
vais
aime
assister
##esté
Conf
total
quitter
##TÉ
Allemands
Denis
puissance
##cn
discut
vac
pourront
Har
##10
élo
vins
bataille
Tou
##reté
dress
Lors
victimes
be
##uez
objets
résul
culti
camarades
##80
sév
mode
dames
entier
##reurs
##onnés
Pic
Belle
##guer
fleurs
désire
difficultés
enseignement
douce
##po
prononcé
Mes
##ariat
far
éclai
##èles
Pé
Sous
Hon
pel
##ker
ancienne
coû
##phe
nul
Associ
allemands
parties
So
rt
ouvrage
pan
importante
Gab
Mos
Tar
nations
Lam
échapp
##20
oe
##sib
Porte
graves
Mars
Anglais
qua
faible
période
sûr
cout
cherche
700
voulait
épreuve
##rè
##ecture
Parmi
réserv
##qua
norm
tromp
compt
prêt
##uf
quarante
vieille
##ky
Eug
##crits
repouss
Lille
études
tarif
application
courage
union
moitié
nn
faibles
fallait
tonnes
détermin
influence
##audi
104
rues
COMP
##chesse
catég
agent
sor
##atifs
##ypte
placé
130
sinc
Va
Germain
Phili
##bs
Thom
propor
##tude
individu
Sav
législ
##rey
escad
##onnais
##ks
impôt
##TRE
courses
emport
Suisse
Légion
dépenses
##atre
transf
ail
équ
pâ
Mus
nement
vouloir
pil
tique
lesquelles
existence
ui
simplement
augmentation
##ceaux
##60
intelli
##ules
lanc
Toutes
traite
spéciale
##ind
dt
révé
manque
soumis
Bro
Aff
##ongrès
IV
quart
souh
débat
excellent
représentants
connaissance
##lc
pér
tôt
##vel
suit
papier
##llll
IL
1°
mens
Inf
affec
##quant
OR
revenu
Argent
élevé
##fait
##IR
##cept
May
act
protest
Hug
élu
frères
répondu
Gl
artiste
engag
portée
bis
Congrès
Rio
fc
clôture
##ba
durée
matériel
Reich
café
assassin
cinquante
Ray
Dès
clair
Dub
##xi
##ormais
Sou
prov
##dien
##aises
mm
vig
parl
Roche
##illard
Avant
orchestre
moindre
récl
##chent
entour
Dom
procédé
div
délai
##ocation
Antoine
préoccu
caisse
##alle
COMM
compter
procéd
retard
##gement
celte
##ension
Pan
permet
pomp
déch
tap
artis
##olle
célèbre
soleil
soix
adressé
har
côte
##AIRE
##iu
phy
##uites
délib
##ormes
récemment
station
ordonn
##CO
##adis
parents
##ilé
solution
accueil
##cidents
moyenne
cité
##pare
nie
constitution
##pa
trouvent
exemp
caval
soldat
mémoire
Sau
condition
rh
répondit
Portug
##vière
PR
mut
aient
inuti
Croix
Als
coul
Lib
étais
cris
parfois
phil
##nant
écriv
pieds
##auté
ut
##endi
rapidement
important
projets
##IB
match
HOTEL
san
Fédération
##fre
cuir
démont
vivre
Strasbourg
rapports
patrie
voyageurs
ressour
##mit
he
Cer
lumière
fantais
##11
Assemblée
village
autorités
ga
publié
BAN
##oureux
##maines
coloni
lai
##ATIONS
trés
Dis
##jon
ajouter
déliv
avanc
assure
cle
Champs
Cela
Seu
ds
paru
endroit
èt
ts
PA
dissi
##QUES
CA
##arité
Bons
bd
cérémonie
##igu
demandes
##ulp
ies
silence
lire
navires
Maroc
dépôt
##rin
exposé
##ok
##ony
pli
disant
rendus
Cin
client
##quement
Ann
onze
froid
morte
Haute
Vil
conséquence
sortir
vicom
Ga
##OY
sauf
avoué
3°
accepter
incendie
uni
Laf
magnifique
##uration
page
conte
dout
écrire
##ples
DI
solen
catholique
POUR
Fa
##leine
##reux
##cou
Comment
communes
##être
##go
témoins
cord
tenant
##mon
élection
1a
défendre
##itre
##rents
traitement
entièrement
félic
étage
vait
Afrique
##nr
réunis
faux
350
##tra
VI
séjour
production
Commer
satisfaction
ba
histor
liquid
Guy
Lac
effic
constr
##érir
vint
##pren
chale
recommand
convo
revol
empêcher
lieux
suivants
central
tableau
principaux
empire
##imité
Gou
##ourt
obser
##usi
ja
Egypte
assi
Guer
agri
He
joli
sociétés
band
##mett
conseils
réuss
##jec
##umé
orateur
##mul
core
##han
bataill
##arme
britannique
cardin
banque
gouverneur
dr
##70
principes
Fi
profonde
##ommes
raisons
estime
création
##aii
italien
Commission
AC
subi
Bernard
avantage
Gau
rappor
incident
AM
tic
vertu
quelles
médi
inn
repris
applaud
ration
Royal
vif
éli
événements
interv
dessous
confr
seuls
russes
prati
##ernant
myst
mas
##euse
enth
##ola
Sta
semaines
flé
roman
##ingu
XV
populaire
ON
construction
CO
peau
##PH
##iet
équip
recev
tranqu
##ana
dat
##dici
go
vapeur
fati
Cou
bru
précip
utile
Vinc
##oile
banquet
jugement
Ele
inaug
chan
bri
rant
##fication
##ption
UNE
territoire
##aies
##chait
montrer
##inois
ore
habitants
##onible
dign
##fa
##ousias
##isson
figure
##OUT
divis
Sh
JOUR
##oger
##raine
##als
##éraire
Cab
moderne
MO
traî
généra
matière
fame
##UM
sons
capitale
Far
veau
##agement
##riers
##gra
##lications
certainement
vernement
colonies
##ormé
##III
MAIS
immense
émotion
bonheur
maladie
03
génie
secret
1e
comédie
##tic
##ster
fixé
out
tés
Mines
inconn
##érées
rej
##olue
Chap
rappro
Oise
pè
exposition
environs
iss
##lot
##acité
AD
tirer
insu
quer
arch
frontière
volume
Lar
modes
veulent
remise
douze
malade
##oindre
sécurité
gre
régl
##feu
ME
##igueur
appréci
##éron
coin
Da
##yer
résolu
fur
taux
fun
Ven
pain
tableaux
Thé
##ës
Go
découv
officielle
##PAR
évi
marque
##ST
Bourg
diss
##dement
##aves
dam
parisienne
tab
##isément
garantie
extraordinaire
classes
démission
##fice
Voy
techn
mauvaise
marins
enreg
##umes
principal
tl
Ind
##inte
prononc
épar
Association
##mat
##ua
##mier
Chem
maladies
Dar
disput
##dication
##ague
princesse
Cir
délégation
catholiques
##érieurs
science
##cins
las
140
##oulez
automobile
soixante
##tf
arrest
##airement
perf
bron
provisoire
indépend
cesse
suppri
Bra
##cession
radi
Genève
aliment
brut
garçon
mines
##arie
adjoint
terrible
##tées
Dun
blé
##diction
vaut
tal
Ath
auteurs
Univers
Tra
espoir
électeurs
##rouver
##ueill
suivantes
Riv
##ielle
ench
désesp
our
##ize
appelé
boul
sénateur
spec
mè
mobil
Pou
essent
décis
Marne
##ij
règle
450
audience
connaît
rencontre
racont
##bonne
##cal
inde
##ty
##ley
##erte
groupes
Sant
qualités
##ceau
##onds
commenc
sci
gue
##ata
pages
San
ves
manifestation
Vill
descend
désormais
talent
approuv
Madame
commencé
carte
dp
domes
##vr
##aindre
##berg
postes
côt
longueur
##ke
proclam
##dr
uu
##erm
céder
Alexandre
découvert
##dications
tement
bé
suffit
probable
recettes
vivement
##din
convain
salon
décès
chang
éloign
riche
Edouard
déclarations
changement
##osph
Tunis
##ications
den
##CL
##itude
Très
problème
propag
##érature
Gh
théâ
##nées
##ussent
encour
Ali
Mari
langue
venue
civile
Entre
remplacement
ec
CL
sieur
recueil
Ai
meilleurs
combien
##ople
nue
JU
900
portes
pharma
1S
■■■
sœur
procureur
Dire
Pourquoi
parait
##agnes
morale
physi
europ
Dav
propose
scrutin
ns
##itant
##uments
Mass
pêche
réforme
avi
Don
##icien
At
dér
Sam
importe
Lis
fonctionnaires
tels
négociations
alliés
##rio
venus
IS
immeu
Juin
ff
hauteur
europé
ennemis
avent
tribune
##ements
##gs
navire
nal
défaut
bleu
##criptions
honor
envers
aveu
Dau
##irs
##ettes
œil
reconnaître
Ci
circons
concernant
réalité
##isant
Jusqu
gagner
FER
sortie
Obli
has
##by
##quette
##hon
phot
devront
gram
##rets
Maj
##usions
Madeleine
##outons
honn
##till
##pen
##vy
démar
arts
##gné
Brés
##meur
parfaitement
sensible
opération
##DIT
dépend
##iiiiiiii
ea
mérite
##ios
montant
circulation
Celui
candidats
rô
##atio
##érieures
fo
conscience
devra
règlement
Dimanche
usine
promen
sentiments
Etienne
montré
Mex
résistance
fie
rat
Ouv
revolver
téléph
monté
salut
Fig
##cières
donnera
jeunesse
belge
##tifi
IM
##isa
Oh
origine
déjeu
Suez
opposition
##illi
##ouverte
Sec
Trav
##ERT
cost
ltal
jouer
##igny
Nice
quantité
Plusieurs
quels
Fré
Hal
indispens
160
##itimes
Im
##ington
Janvier
jamb
EST
Rich
##olte
rr
##lés
Guillaume
181
travailleurs
Cham
lâ
##LET
pression
##ISS
let
Mise
monument
puisqu
Hol
Louv
curieux
##pri
##çs
envoyer
BE
reprendre
##oii
Alger
pouvons
ches
blanche
préfecture
supérieure
Bure
peuples
perman
candidat
cop
##adé
vaste
tf
Ecl
##itations
soie
tâche
décor
nist
enthousias
##rain
QU
ball
canton
Max
##ciences
Cat
Malgré
singu
##oléon
##idité
cardinal
lan
éb
Brésil
ménage
##eth
féd
##érable
attendant
Ay
admirable
bénéfice
##chev
oh
##gh
ouvrir
autrich
fas
Ru
Boulogne
ij
louer
souhait
orient
accept
iné
##pel
honorable
##iteur
##aliste
Trés
appui
##ost
##icale
réuni
##sibilité
sage
pouvant
##ports
##quier
côtés
##rist
106
Eugène
régions
Ler
##gations
##cite
ST
comprendre
Ceux
##ei
##ilh
noire
brus
obsèques
prési
Comédie
énergie
ss
Art
flam
Eu
##OG
ressources
rire
àla
surveill
violent
désign
troupe
voisin
cort
dë
vitesse
Fac
content
Bay
perdre
toutefois
RÉ
vre
luxe
pose
expression
Tré
Simon
AP
républicain
AUT
##omac
Lucien
conç
aujour
gê
judici
FRANÇ
SAIN
bran
prie
Chau
créer
##apt
naissance
abond
ports
##îi
indig
confort
expérience
soirs
rapporteur
avia
charges
##bres
reconnu
##ÉE
pot
sty
##dy
dn
Colomb
Revue
report
Chant
donnent
##ètes
curé
remarquer
doux
mad
heureuse
Hi
attent
inspir
Cherbourg
GRAND
expert
##avantage
éduc
proté
vel
Ni
tme
Ol
gagné
distance
##CS
donnant
##jj
songe
inquié
médic
raient
Dum
sieurs
##nels
Rég
hé
abou
minis
portrait
syndicat
Bart
Italiens
Trésor
##ïi
##quait
Jo
02
Toulon
##nc
Mat
Hav
menac
##olo
Cé
prolong
tombe
tiers
Pari
##isées
Laz
session
##EST
maintenir
pauvres
115
pouvoirs
Arc
cro
affi
trains
poit
lier
##oyé
Ton
lic
VENDRE
républicains
vaisse
sociale
##neur
##àr
vir
marchandises
bande
clar
émis
citoyens
penser
semblait
revenir
prisonniers
demeure
Ti
assuré
expédi
lions
besoins
demanda
##riques
culture
##ses
ramen
jury
défend
couleurs
jolie
mière
##anm
responsabilité
vil
Gast
##onnière
##illers
janv
rig
agriculture
faudrait
Rien
Marc
##IES
pourraient
initiative
soul
iv
##ricité
group
Méditer
##nl
##fai
arrière
litté
Hong
##atrice
##LL
##kin
More
torp
appareil
##alogue
dîner
##cte
oi
##mir
##tible
##ald
sement
permettre
fu
écout
Chamb
digne
appuy
ajour
erreur
radical
chute
Ah
##teau
##lletin
1914
Matin
Demain
Math
appa
ottom
dirig
convient
dents
##rices
##ulé
laine
##court
##uni
facilement
Philippe
triste
cime
espère
gloire
rer
##lières
##95
interro
##ulaire
médecins
4e
##vu
Barb
passion
arra
davantage
perte
réception
prud
assisté
appartenant
insist
visiter
terminé
##oient
paraître
ministérie
##enn
##AY
messe
messieurs
108
##ATS
rejet
épreuves
##UT
revient
accompagné
contenant
Joh
pét
effets
différentes
absence
gross
obligé
We
##ologie
pond
##hode
##ôn
neur
##éma
assistance
jourd
croix
##gre
##entement
Met
prodi
rédac
discip
rappeler
tons
beauté
Toulouse
reven
acquis
tiss
civ
cheveux
##chy
comprom
Moul
Flo
fini
sep
constru
jau
décédé
inspecteur
Eh
Votre
renvers
individus
dram
##dez
causes
Fab
##IST
##tiens
explos
soule
déposé
obst
récomp
##ionnat
##ageux
cultiva
##ORD
trouva
mairie
##ortun
##ultan
contribu
Cle
##ographie
sim
##blé
fantaisie
différents
##ibus
frappé
arbit
privil
directement
favorable
réaliser
tenait
##armes
##tern
trésor
##tième
critique
##arre
Jeunes
Gra
occuper
tation
redout
cuisine
examiner
##pn
constater
##ash
citoyen
Mlles
qual
##pent
entret
Jeudi
cartes
amendement
##ranée
io
tendant
éléments
##rième
philos
égale
collègues
Quatre
Land
##lll
devient
##AND
baiss
wag
Alsace
sè
Roger
pertes
##archie
##bal
douleur
##anmoins
tomber
auxquels
espé
##ntemps
##ID
##ôtre
durant
négli
récit
PETI
prime
battu
organisé
cler
chambres
Gazette
tombé
adversaires
meilleure
multip
rétab
FRANÇAIS
devrait
évêque
épau
délégué
##cies
véri
livrer
##acles
cadavre
Vente
tie
exige
obé
dor
Long
##URES
impri
Vend
armées
ANN
couleur
intervention
agir
charm
adh
107
##elin
hasard
ras
##js
##érien
composé
Prusse
fat
##chou
annonc
parfaite
resté
sauver
##acie
lent
##lr
##chées
débar
malades
Pra
interr
cessé
##èrement
Por
ignor
##acte
reçues
##ffe
##ELLE
Constantin
allé
agréable
Napoléon
##esses
Pays
Syndic
nent
voies
##quin
correction
évent
solid
témoin
##licité
##conque
Salon
##idence
milieux
paci
voisins
##IM
propositions
amus
##ting
vendus
ltalie
Inter
tiré
préte
riches
lité
##RIE
teint
##igner
##tn
tendre
Gi
TH
ran
chiffres
meurt
stu
vues
pluie
export
garder
Elysées
##oté
Poin
américain
toire
litt
##quées
successi
attrib
tendance
##den
acquit
##och
idé
aveo
Ve
énergique
sions
Cô
beur
##range
due
geste
départements
##ATE
invent
entreprise
nés
canal
particulière
SAINT
Louise
##raire
07
parquet
##agu
conserver
résolution
usines
rn
##ison
reprises
Siè
##rances
Turquie
affai
SUR
possède
Aj
remont
Amb
probablement
agricole
occupé
iu
##lix
maxim
##manité
##ativement
tn
SP
fournir
##ernes
ingénieur
##lée
magistrat
chi
Aub
maritime
Empire
adressée
çais
##assés
signale
nir
resse
Messieurs
source
MAISON
##oyen
donna
Four
portait
développement
gris
##oue
##deau
1910
cra
##TIONS
##diens
Att
##hier
nière
parfait
ps
voulez
disparu
##gner
transporté
##othèque
doul
##85
##olet
##idé
telles
##ctu
Nouvelle
##ett
repar
conflit
sérieuse
phras
##alistes
##titue
##ïe
ÉT
élec
Radi
##unt
accusé
Manche
##reau
arrivés
devenir
Stade
##ENCE
remettre
jui
ron
garnis
retirer
tuer
trouvaient
comptes
répand
propres
Pologne
sympathie
établissements
##armerie
syn
Der
##otes
dépê
époux
minuit
##mnibus
écras
autrefois
centrale
Gaston
offi
mourir
duquel
bouche
Py
distribution
religieux
intéressant
##iie
arriv
protection
garanties
nor
vr
##BE
Commerce
héro
échange
##BS
abus
envis
assises
Ker
numéros
Normand
dément
complé
It
monn
##ave
caiss
supr
##lien
Chemins
passant
réduction
fan
grosse
importantes
##nez
devenu
suppos
unité
connais
##aj
insur
##dite
flotte
Briand
républicaine
noble
##aigne
refusé
##enues
entretien
reçus
##dam
##éry
envah
document
renouvel
cortège
##oite
##OIR
disent
avantages
situé
incl
Thomas
veaux
ident
hôte
bénéfices
retrait
grade
rembours
Figaro
viol
drapeau
her
##lies
écar
##ycle
Ll
incon
Voir
précis
exploitation
rentrer
effor
pierre
ip
Né
reçoit
##rag
##chard
poitrine
George
##olid
Dal
##ENS
signe
##êtres
retrouver
température
##die
bourgeois
##onnée
Arri
piano
déclara
##prises
spir
##van
perpé
vœu
ordinaires
##oureuse
voter
Mas
essai
##viend
Château
céd
##urie
##bie
ste
Compt
##acon
collec
impôts
produire
Sui
rentrée
propagande
internationale
convention
##ÉN
##itaires
franch
Péters
quatrième
##fices
naturel
Anne
ast
1894
AUX
Pers
##rn
fraî
regrett
##zon
commandement
FRANCE
##bot
##nelles
Env
inex
fixe
traités
éducation
##aris
chancelier
fum
##lia
##îe
pareille
origin
##ièvre
##itée
indemn
rive
occupe
sujets
MAT
##tifier
Père
religion
attribu
regret
SS
repré
abat
##sa
##rien
religieuse
Gabrie
citer
##ongrois
Arts
énorme
croyons
##ottes
avan
réaction
exactement
##ng
grav
étrangère
rare
##tée
tentative
actif
##cho
Cler
Pen
##oiselle
##ymn
dite
sér
Mun
allant
##fred
amort
brigade
Auguste
poète
Chaque
conclu
expédition
réput
Grèce
aviation
proportion
savait
active
##cés
contient
TRA
joy
Noël
vicomte
apporter
aa
devons
Sont
FR
##lieue
##eloppe
##ancy
1895
bateau
feront
lia
##manie
manger
recherches
prosp
positions
##ala
170
##isses
cous
supplément
Cpt
##verse
Rousse
éval
chans
manifes
lr
devaient
méthode
tram
juger
coute
relative
##maire
Marguer
divid
éte
##ja
Séb
##89
longues
Honoré
signé
Agence
parcours
signif
reprend
marquise
JOURN
Vau
Jours
triomphe
Blanc
applaudi
##INES
##astro
consent
Poiss
mena
##pré
##ésie
CE
aî
machine
SA
hommage
BOU
plainte
##iciens
Gas
esprits
Salnt
savez
échang
attaques
##ye
définitive
espèce
Nicol
relatif
Bes
##oï
Jamais
spécul
##mite
##ustriel
royale
masse
absolue
surprise
tru
##taire
oublier
##ories
NE
repas
crédits
Same
##tants
chargée
Wal
affirme
##bout
##oly
financière
américaine
communication
Fontaine
réunir
DANS
III
reconnaissance
##lantique
japon
##15
##GER
mier
##éni
GU
tradition
##étaire
restent
PH
jo
ic
##ick
arrestation
supé
minim
consomm
##jt
##rl
milliers
Rapp
VA
nommés
scand
déjeuner
Ho
disponible
bli
pati
italienne
Sai
former
Pass
##IÈ
1870
Méditerranée
possession
nettement
Let
taxe
ferait
##ISE
Lang
##ensive
publiques
cadre
assis
##yl
spécialement
craint
Ligue
AG
##ament
Franco
##ranger
1913
rass
estomac
liquidation
##vistes
ang
remarquable
Chez
ji
IT
##outes
miss
cen
##mt
dette
allemandes
habitude
Alfred
##rette
bres
##vier
##ataires
pier
##éric
Lan
Calais
habile
Lazare
cass
offrir
lant
explique
BANQUE
vaill
##35
égal
soud
##âts
accent
Lorsque
menace
conséquences
bataillon
Dor
ouvre
##inent
exclusi
parlementaire
faubourg
robe
courte
reb
espérer
Richard
Sir
paiement
défi
##por
donnait
##ovie
nées
Rose
##armacie
Bis
##ILLET
##usta
##mise
néral
excellente
##igneur
placer
Moscou
##œux
chère
##çants
Vit
crimine
sourire
Ham
libéral
motifs
règne
Bulg
dut
Chambres
RA
Duc
vigueur
Poi
112
unanimité
médecine
expliquer
gendarmerie
ombre
pareil
joué
dimanches
alloc
Parti
Sl
##etta
suppression
rentes
causé
issue
rente
préju
##sibles
ct
##45
marin
terres
06
nov
##iit
##agers
appris
##iz
unif
escal
Ep
doll
fier
débats
1921
##queur
procéder
##vage
type
signature
Ml
congé
jeter
baronne
lais
##rr
style
109
##ueuse
##ANTS
nistre
fuite
Air
entente
animaux
insuff
carrière
##vié
Prince
bil
violence
gai
135
##LÉ
##vie
signaler
##fus
navig
duchesse
fixée
forts
communiqué
##uts
raff
Drou
sh
##ada
pair
##oisse
##ITE
1880
quoti
Esc
Feu
séances
rares
appartient
jouissance
von
##deurs
##ali
Lundi
##illons
déd
rte
facil
produis
qué
domaine
international
balle
##ope
##oué
grièvement
appareils
182
support
espagnol
Christ
BOUR
prenant
arrêtés
ouvrages
##ago
bibli
données
principales
manœuvres
posé
composée
nomin
apprend
amp
contemp
##caré
renfer
Rhône
sauve
spiritu
Déj
tom
specta
##fais
##mbourg
##mence
##AUL
##ignon
CHE
organisée
fleur
grec
##ny
Dépôt
Mans
Hongrie
Dés
désord
propriétaires
publier
##onge
aud
clientèle
moral
bail
muni
##ERN
##fie
joue
tan
formation
##ATI
EL
perfection
Ernes
Fem
heureusement
consom
télégramme
##cieux
taine
exag
race
Bat
Caen
Servi
définitivement
modèle
118
Lorraine
camarade
vendu
##orge
##aisons
magasin
éta
175
peintre
calcul
##leurs
appeler
voyant
Caisse
OB
ls
dites
acclam
radicaux
prépare
poser
auxquelles
##Ui
lî
entré
1909
mises
infir
Quoi
COU
##istance
naturellement
COL
gagne
220
##AD
Laurent
pavillon
Gré
travailler
combin
blancs
Jeune
adju
Fern
Wash
documents
08
bains
pt
##ONN
atteindre
##allée
poule
PRE
##wn
recherche
précieux
##pell
résulte
forcé
financier
##tific
conduire
Radio
Marché
Pape
Italien
accepté
##veil
prétexte
parcour
connue
Pap
##we
##urée
##ims
publication
ouvrière
bij
vœux
ard
économie
Trib
surpris
sée
Lit
Dern
iS
##ling
##unes
cycl
Rivoli
AI
Dam
Nancy
intent
Félix
inutile
gendarmes
cimetière
Action
formé
Rand
répu
sab
##rières
association
##AIRES
##iés
##adier
##AZ
##olles
précau
hectares
1889
déclarer
Tél
jeté
##uir
Baud
commencement
loge
CHAM
##tré
anti
velle
conven
Meu
harm
sinon
langage
##lis
ressort
importants
Dup
balles
##tile
##ws
taires
plaint
brevet
Jul
TER
Mel
##not
terminée
750
Reine
sonne
meubles
Rés
##tera
prêts
deman
représente
fusil
##alie
république
Nouveau
Samedi
Lag
ira
argu
amené
invités
Marguerite
dévouement
maintien
##rables
réfug
##rammes
Hugo
correspondance
Poincaré
##xes
âgée
Veu
cau
##eté
Yv
conséquent
Constitution
champs
lac
##acs
##neau
collabor
malheur
1920
feuilles
record
attaché
mètre
##rera
sance
##arent
pension
joint
##hs
fabri
Elect
##iette
magasins
poursuit
subir
Leur
Vive
##tez
Russe
ion
##anche
blique
Suz
##ditions
##issante
DEMAN
annuelle
firent
étrange
sciences
March
salons
termine
souverain
vaisseau
vê
fermes
maximum
avion
mond
ao
##gué
faudra
##gère
1905
réunions
côtes
tance
##hes
Var
##oges
Améric
éti
##ataire
Jardin
biens
promet
cavalerie
TOU
line
bag
acheter
constitue
##jr
traiter
Rév
lt
dic
viens
Institut
banlieue
recul
1896
déro
If
prête
syndicats
fameux
sages
libres
##UIT
circulaire
alla
reconnaiss
télégraphie
Courant
monter
médaille
passait
indispensable
##cent
Réun
scient
bateaux
Temps
obligation
##ressi
RUE
Fal
assurance
attendu
fâ
éclair
##iï
Naz
bâtiment
engagements
gares
précé
09
dessin
formes
Quelle
##ways
cham
4°
Sor
Cit
##osé
##érard
Toutefois
buts
évac
##cié
chargés
conj
quarts
paque
quoique
immédiate
incomp
préparer
polon
reprit
amitié
surv
perpétu
116
Ev
1875
patriot
ignore
réseau
##uies
séd
jadis
généralement
Peut
coupable
champion
##feuille
remport
basse
##pon
coop
Autrich
fabrication
glor
murs
##ties
1891
chevalier
chaud
##iteurs
Cie
Lomb
##nay
##the
splen
bic
##trait
##irent
##onyme
abst
précédent
Rhin
##cli
maîtresse
métal
##LI
gardes
Lim
rose
archev
##UC
1871
##iction
tenté
tis
##olland
1932
chô
listes
Cheval
Guerre
autrement
clé
##fique
MI
Boule
##arn
Ernest
##fè
constaté
##mpe
enregist
and
maux
Tro
1900
couteau
ul
113
émission
capable
1902
courir
anciennes
minimum
empar
Pétersbourg
tants
##hr
Bau
chal
sein
##sign
##rairie
ceci
rasse
superbe
étonn
soutenir
LY
comport
milliards
pouvaient
##ibles
Université
Faculté
située
suprême
vête
##my
classi
##BB
souvenirs
ché
Eaux
élus
explications
VENTE
##ïque
créé
prononcer
impérial
réclame
Parisien
Prov
madame
conseillers
arbres
GR
posséd
naturelle
électorale
local
consommation
orgue
ult
##dies
##ÉR
ouvrières
OFF
conduis
Do
rité
Cong
ABONNE
pouvez
cip
mee
autorisation
Len
##ANCE
affirm
mant
boî
##endance
monte
##érait
Blanche
faisaient
1930
Foncier
##ABLE
élan
compét
117
proposé
prévoir
tier
impor
SER
##terie
épous
Cot
Rouge
charbon
lion
aurais
simples
aver
##opol
##ïn
archite
COMMER
Leb
vieilles
interprét
CHEM
##Ul
##ELLES
grévistes
480
04
traits
Ouvert
viande
1903
feuille
##plus
##chure
œufs
coûte
envoi
ol
enn
MON
1906
Rol
Hy
manquer
pant
210
Ara
COURS
##bet
Bur
voulons
##uls
technique
film
prochainement
dus
Lem
PROP
doss
Dr
##êmes
mie
villa
atelier
##îs
Gren
porteur
##obil
représentations
##LAN
suscep
Washington
tante
naître
club
ajouté
intérieure
foncier
promis
##rations
fine
crainte
##cus
labor
interdit
##fle
sortes
od
observations
Monte
nomination
amateurs
##àn
##érations
deg
sporti
pompiers
vacances
Leg
##AGNE
anal
sollic
##cile
chacune
123
Central
##hum
patrons
Bré
##cas
Enf
##oral
bloc
Nicolas
##ër
##ASS
rouges
payés
évidemment
prennent
Claude
roul
##issier
##ao
rédi
##neurs
##GES
jal
judiciaire
##agas
##ÈS
Camb
légèrement
##IONS
Richel
##fications
##irait
surveillance
1933
politi
##jn
remède
Vl
mée
##dique
##agner
##olies
voulut
##dom
collection
million
##aret
accorder
##outh
doig
Oct
##TO
gouvernements
550
deuil
nombreuse
Russes
neige
##lection
philosoph
tue
dois
objec
savent
fidèle
##ado
attendait
pari
nez
précisément
tén
passa
événement
privée
##itables
portent
Cond
##iré
métier
##ouill
canon
dç
sûreté
##chon
mœurs
remplir
##assent
achat
chapeau
accro
Laval
tués
122
vier
Comb
##tivement
rédacteur
Affaires
formule
rembour
considérables
tranquille
faiblesse
Ur
##omie
célébré
attra
Camille
650
châ
concier
##amp
lien
##itch
##ACE
quelconque
circonstance
papiers
230
réserves
confrère
bruits
parts
succomb
Justice
contrib
##ateau
##urier
verre
compagnies
laissant
Sac
mili
Cau
tiennent
##tins
##âtre
##ourir
##dem
##cia
persé
##tige
fidèles
réclamer
machines
Tab
découverte
##bri
canons
spéciaux
sid
fre
##erre
colonie
salaires
Gamb
Comique
juges
finale
douzaine
##ombre
héros
alco
vaux
Hollande
émin
dépit
semb
industriels
engager
escadre
##omètre
##istoire
##CIER
concent
##hard
sident
##zi
Richelieu
##IERS
##peaux
##èmes
Sè
##rud
chron
Capit
Pie
Os
Etabl
VO
engagement
##itte
Turc
fir
Tours
bâtiments
empress
TE
équipage
##mages
affirmer
##ayette
sortant
blessures
Portugais
vraie
clergé
apprendre
##iS
lus
manche
Lev
Mén
failli
Caill
sociales
paral
tré
nion
transfor
indépendance
rivière
Celle
aspect
Lamb
Ici
Roch
éché
choisi
##ùr
Sû
amie
##UST
BR
tète
agissait
équipes
Vincent
Las
##tueux
mobile
lue
observer
références
Alph
510
recons
finit
appartement
départe
humaine
comprenant
##ep
trah
##ventions
rendit
dl
Sil
jj
unes
Petite
prouver
Cad
Rousseau
étendue
conclusions
dot
##ïï
flot
Raymond
rétabl
##aure
battre
manifestations
lèvres
##oste
sure
alliance
##ALES
##érons
1879
explosion
TR
pê
émouv
Gil
billet
NOUV
accompli
recru
##aisembl
Alli
désigné
dépêches
prouve
ordonnance
rêve
##sen
élever
Sol
suivie
##uée
1912
Messager
matières
##ressions
incidents
sensation
organiser
##prés
ventes
##angers
guéris
RI
##rans
aperce
naire
craindre
chaussée
signalé
mobilier
pn
mélan
sta
préparation
1934
##DES
atm
catastro
tirage
##èdent
vement
habi
Miss
##AIT
Eclair
tex
fortes
ho
conclusion
affect
bœu
interpell
rappelé
remplacer
asc
retourn
114
amener
Nationale
personnages
scènes
##atoires
BO
organe
élément
continuent
Pâ
rs
Constantinople
##vl
patrio
anc
Rab
dangereux
paille
Six
danse
accusation
##ardins
Inst
##65
om
##ês
JOURNAL
Pin
chasseurs
coiff
##étaires
boute
Presse
##mbert
agence
fabrique
agricoles
Empereur
Pel
composition
##reuse
##itent
voyait
fenêtre
échec
Cro
cla
##orn
destinée
##KS
combattants
çaise
édition
aider
urgence
souci
ANNON
achats
arrête
##tiennent
##CC
##érienne
prendra
semblent
##rions
Vos
catégorie
##ief
remercie
470
pommes
person
##ainement
intéressante
rage
Mort
universel
manifeste
Res
industriel
nullement
léger
discus
Comptoir
toit
allure
Camp
##ître
caisses
sacs
Marine
Na
diminution
mineurs
Normandie
##èn
490
DIV
Luxe
Cinq
240
lune
Az
régi
souscription
##ulation
historique
dignité
119
malfai
Cu
1923
sés
Parisiens
##abilités
lle
Vendre
Pant
##bu
ling
annuel
##àl
chante
CV
##oudre
410
murm
##PS
moteur
Angers
meilleures
fallu
los
cien
Men
Jés
Arn
Maint
provinces
GAR
Fra
Gabriel
Malo
transports
Rec
##ture
Gold
Conférence
##nellement
concurrents
haine
Etude
actionnaires
##ical
nau
savons
sar
dioc
larmes
##oissons
##rc
prévenir
##hal
atteinte
connus
fixer
##del
choc
Rem
cordi
nobles
honnête
physique
Clo
##cessions
1898
##rois
##mie
adhé
##ands
reli
tat
ara
poursuivi
Duf
direct
donnés
dif
AT
##olique
mécanicien
printemps
Déb
MAL
saisi
cier
salles
Vin
conversation
informations
Roumanie
tenus
##ader
prêtre
CAR
##onies
Lot
consult
nage
nationaux
oeu
tonne
##ila
Die
1892
manœuvre
intég
1890
1931
clos
121
##bel
Brun
vén
430
Louvre
##uitement
totale
faculté
particuliers
décisions
sert
parisien
monnaie
îi
##inière
rit
mystérie
levée
##ouille
troubles
commencer
Dunker
lever
##lymp
allons
amélioration
artistique
##UU
précises
Pans
fermeté
mention
flu
satisfais
bulletin
PO
##ham
##ÉTÉ
aimer
tellement
indiff
nulle
disparaître
mass
voyez
sut
##ustave
##ilibre
##MA
intelligence
##ffl
##uri
héri
nait
étudiants
Mand
##MBRE
clo
directeurs
brillante
##sis
abonne
préoccup
dure
communiste
changer
##ister
##pins
reux
145
Fréd
extrait
recon
Travail
poursuivre
Générale
romp
étudier
souli
280
##bur
##istère
inscrit
Edmond
han
Ob
fréquent
FON
oublié
motif
475
minute
##geant
##iels
Gustave
réflé
sonn
1904
chien
finir
pénible
##ones
##iène
instructions
Sociétés
exprimé
îles
absor
National
##fes
Rev
brave
promp
Bac
rez
misère
degré
ua
pin
vag
garnison
protestation
lourde
abri
lns
##ffet
##iliation
1899
##lié
réu
##iosité
##unal
##orce
Sain
Drey
460
1918
zone
normale
133
occupation
Ret
étal
bijoux
Arth
sug
réelle
procurer
Industrie
##atie
##ull
RENNES
mem
##illage
utiles
inconnu
porteurs
Voit
royal
fruits
électrique
légitime
CHAR
devoirs
colonne
##bation
partisans
##hen
publicité
##actions
Tel
atten
Centre
métho
BON
touche
constate
##ernation
Pet
JEU
cb
dirigé
##ive
enseigne
distrib
##rel
131
Gouver
discuter
réparations
dres
Réunion
transform
évê
assass
augmenter
Vari
##aillé
combattre
##pture
Pil
accès
##hl
néanmoins
déposer
matel
éman
mérit
iii
##organ
Comte
Mu
Châ
destinées
##éries
Jane
Dépar
Viv
locaux
désas
225
pronon
1924
annivers
Ap
seil
demandait
beurre
bât
parlant
##■■
enthousiasme
Inc
Fleur
puissant
indign
détruit
##odr
chinois
Picard
SOCI
directe
##gny
flacon
Change
porcs
exercer
##uation
destiné
CONS
demandent
fê
longs
lance
TOUS
vivant
##har
bert
stock
MER
US
##lor
relativement
tours
cation
##stes
toilette
##gées
produite
forêt
##tille
conclut
distingu
##tii
malheureuse
rée
prenait
merce
primes
Maz
##onté
##mique
1919
uniquement
iM
adversaire
Office
VE
##sière
paquet
excep
trouvera
Hau
Syndicat
croyait
dô
longueurs
dégâts
hautes
Grâce
charmante
certes
réflex
réformes
FOND
chapelle
prospérité
##ormément
invi
paraissent
##ifiques
coupe
Francis
##illa
##acé
##VI
routes
paraissait
changé
échapper
admir
vide
littéraire
Cb
Lord
COR
ateliers
apprenons
##rature
indigènes
Alb
Ii
dc
ine
interromp
sport
##lène
Gros
420
siècles
Rib
aér
officiels
distribu
innoc
personnage
restera
##itié
John
Reims
pon
quelqu
Oli
##Si
syndicale
##cis
adhés
chauffeur
marchés
considérer
##oz
drapeaux
van
##oyés
scandale
infor
Ors
comique
##LLE
intéressés
îa
Rente
Coupe
##RIER
Rouss
difficulté
angle
justement
camb
Metz
qù
domestique
##ervatoire
atmosph
Panama
saire
cercle
fisc
440
##dl
Jan
330
foyer
voudrait
##àt
380
ANNONCES
155
trot
statue
##ûte
Mur
fasse
dessins
poudre
##uels
Ji
520
##lers
Pier
teau
employer
##oris
déroul
scol
profiter
##AINE
Bureau
charme
##uine
gas
##déon
ani
destination
##ératrice
pruss
##tig
Gé
Juge
annoncer
Où
condamnés
doct
Fre
tac
impré
MÉ
##menceau
extérieure
entr
##rimés
##mè
économiques
##arte
indique
din
formid
jugé
sentir
musée
jusque
apporte
##jl
132
Hou
##urait
EMP
##aillard
LOU
concierge
pins
Mul
##rac
marques
plant
Oran
mâ
Majesté
##ïl
prévu
Salle
humanité
offres
semblable
diplomatique
Temple
##enses
##isations
poche
dest
comé
contrat
violon
attaqué
Cert
américains
dict
générales
commissions
Cant
360
provenant
modernes
enlever
Cath
##ômes
##ouff
##éc
##TIQUE
1929
paysans
réservé
##gres
Cy
rédaction
1907
anniversaire
Jaur
acheteurs
gravité
envoyés
Œu
##ros
prot
1927
lnt
représen
Tre
##ary
rond
##hib
Place
aig
##ignan
dons
dividende
pensé
##hou
Times
Moi
accordé
communistes
tien
##isent
##ographe
enfer
plén
aventure
brillant
Gare
volumes
théâtres
livr
##andes
sovié
##AGN
##dict
ROU
demandés
Eau
devenue
179
Téléph
EXP
Ext
gren
##nais
Nou
établis
sérieuses
Rel
saut
restait
##rot
PARTI
engagé
Ts
Heure
persu
##oisson
##ifié
##issable
Mardi
écart
commerçants
assassinat
##itz
Mexique
populations
nommer
Obligations
institutions
260
nè
fes
tiendra
réci
Magn
##ico
degrés
écrivain
##ows
conférences
coucher
preuves
##OUVE
Gaul
gratuitement
poign
évo
assurances
imposer
Suc
##maine
couronne
IND
fourni
##itt
espagnole
constituer
instants
insuffis
##aste
Portugal
indemnité
##umine
capitaux
lies
décider
##tiles
idéal
##DER
renfor
maintenu
HE
fournit
quinzaine
tère
Doc
Gard
tantôt
viend
##arti
Ul
##IX
515
inconv
Indo
tarifs
ler1
terminer
abonnés
pois
##rats
##ruption
essayé
bol
reconnaît
Devant
diam
PLUS
merveilleux
pierres
italiens
PER
exclusivement
##lla
David
extrêmement
##ALL
pend
collège
fémin
##astique
appliquer
Augus
Gri
tive
gi
marchands
équilibre
fri
Ach
##resser
vêtements
Calv
Magas
##heure
vives
faç
##mité
##uie
##quera
archevêque
##oment
aigu
supplé
1888
demandant
profondément
escompte
CAP
##tibles
Suzanne
##dan
##ressement
eur
ajouta
professeurs
COUR
éco
jambes
mol
rendue
vaches
Dec
320
##assa
Vis
commerciale
refuse
allez
##ene
modèles
réunira
jn
Lorient
exacte
Aucun
sel
##rimerie
ANG
Pyré
naiss
505
cart
Jes
Wag
pous
1928
cultivateur
##aiser
##mc
litres
entrevue
considération
galerie
Directeur
COMPT
##ild
considère
##viendra
blés
##lre
réduits
##ores
##ulte
##mel
souri
partant
loyer
Pav
NO
##ranch
##lat
Luxembourg
Ast
impose
domin
péril
huile
office
bienfais
MAN
spéciales
découvrir
##hel
##bo
statis
sible
différence
##énom
volontiers
intelle
Drouot
Fo
1901
Sel
##issaient
##alt
inscrits
##çu
gan
placement
Clément
##dice
îe
conti
Gour
Révolution
profes
incont
maritimes
##AH
gras
MONT
phrase
épuis
JE
municipaux
répétition
ridi
efficace
agitation
chiens
principale
satisfait
présentation
dollars
##giène
fonde
165
sai
vail
sainte
Chris
##aco
apporté
personnalités
375
Provence
noirs
##cesseur
mau
Etoile
notes
tente
Hor
religieuses
##vages
fasc
Durand
certific
rendez
choisir
solde
voisine
##umer
BU
pèler
1925
Vé
concurrence
cun
Dreyfus
élevés
culte
Vendredi
1926
commu
réquis
lO
##fés
310
entrepre
associations
niveau
##voy
indiqué
hâte
Omnibus
##atures
prévenu
extérieur
Chemin
##pro
fondé
retrouvé
Déjà
nus
Julien
immeuble
rendra
représenter
##agné
pape
plume
présents
##tis
1855
inculp
bicycle
indiquer
sucre
tomba
atteign
propriétés
##ardi
invo
##dun
Dunkerque
excès
municipale
##ISSE
Naples
Fernand
charité
proven
##IF
entreprises
VALE
##oble
##MM
revenus
précédente
Fonds
Bos
Dail
portefeuille
uno
suffrage
tâ
##agés
##vation
exprimer
##ÉRI
Parc
Service
Armand
délit
intime
sanc
taient
quint
épouv
Fort
ath
##obile
âmes
verse
1911
Paix
relatives
tristes
solide
accidents
toucher
batt
asi
solu
##cheur
juri
pun
pacte
assu
introduit
soutenu
##lation
illustre
Odéon
naux
194
parvenir
comman
Thiers
effray
terrains
Cirque
interrog
Moz
commissaires
agi
Bonn
501
##erai
bâ
prié
##odes
##pas
##gon
Havas
##qn
surpren
chaî
consiste
Athènes
cuivre
oise
Arthur
##miques
##enet
##mestre
reçut
Ile
pis
violente
Faure
Serv
attentat
##OIRE
robes
len
flan
embr
TA
debout
rence
rement
##sta
élevée
##çe
nar
##ith
sition
Coup
communications
390
##bis
aid
Dubois
God
inspi
gramme
jeudis
municipalité
inond
##lf
##CHES
doctrine
##ife
jeux
Indi
cinquième
nale
##agée
achar
##pitaux
utilité
discipline
##isseur
Cercle
éterne
lourd
Paci
intentions
1883
##èt
méc
##ùs
rab
résumé
fic
##tim
Maintenant
##amer
##AGES
##audeville
##rad
124
préal
##llo
combats
Méde
##ax
Suite
1917
ratta
##chers
##TEUR
kilog
Voltaire
escalier
Chal
Amster
récolte
ep
##ITÉ
merci
##énie
exact
370
Bd
colère
Lon
##OH
##alisme
vaient
Emprunt
ASS
rempli
ries
compat
127
hâ
fortement
logique
chaleur
relever
##érai
##rité
chir
habitant
sie
tira
Fe
aust
Annon
iî
marcher
Châte
coupon
accu
BOURSE
##ston
écria
sérieusement
èn
##ifs
Serbie
Rig
accomplir
hypoth
envoie
gardé
Grands
relevé
##urés
restre
rendant
Histoire
dépense
##ulsion
blic
rangs
bref
oblige
IMP
gout
##dans
##lette
mépris
Rap
mam
##hic
Alphonse
##ING
motion
##ustries
ferm
Ard
refuser
Musique
fondée
1881
##ologique
apparaît
loint
Sab
dramatique
##jo
Anvers
tire
##anément
natio
exempl
cn
maine
compens
visité
diriger
1922
arriva
limite
fis
Frédéric
rencontrer
navigation
prêter
ire
ric
##way
rale
##odi
piste
137
conqu
quator
##Mi
nais
oncle
##NT
plat
abandonner
1893
cale
##glises
IX
voulant
##ït
extré
Sart
diges
Tal
##iro
exécuter
Faubourg
meeting
timbre
##hu
mira
TI
autorisé
quelquefois
1935
orga
##îmes
DEUX
M®
Jaurès
##ropolit
paquebot
hauts
Daily
enlè
##tudes
1885
grosses
IJ
##iron
évident
Dijon
législation
retiré
Amiens
opinions
éclaté
Lec
prêtres
BAR
##ën
##veu
1876
ros
RO
réalisation
admettre
Stock
nr
exprime
340
collaboration
##88
venaient
##ieusement
établie
CRE
##stag
195
sévère
néces
savant
Jésus
hostil
continué
Bulgarie
##lam
##yse
centaines
thèse
audit
##onnet
marié
GEN
espè
fédéral
peinture
coton
ux
risque
milles
Sûreté
##tores
tapis
INT
verbal
orateurs
##ados
Cass
##uet
##MI
varié
escro
Lav
muti
Muss
administrateur
##ouer
longuement
manus
Turcs
cid
littérature
tée
égyp
Administ
essais
révolutionnaire
Rav
##pper
mér
ete
Thér
curiosité
SAL
TO
procédés
anglaises
affection
verra
viendra
reproche
Tor
##quence
civils
placée
Gambetta
##lli
##veiller
Péri
témoignage
couru
tiens
Ont
Deb
spectateurs
Sour
AS
##BRE
impériale
chrétien
rendait
fet
offensive
gorge
##ria
tric
##PARTE
##dire
instr
répartition
Chauss
rede
niers
catastrophe
oo
PAS
boite
instrument
tenter
##OTS
mouvements
##ica
candidature
THE
modifications
naï
##iî
Milan
##dn
vainqueur
grandeur
parlait
##mph
abonnement
sées
##quo
cès
Avril
Souv
pluies
allég
glace
##agnies
##othé
lancé
admiration
dissimul
provoqué
épo
chapitre
royaume
dê
##arg
barb
attén
quête
information
personnelle
##bler
regarde
CONC
nuances
intervenir
restaurant
surf
##orique
communique
démonst
128
##DIC
mettent
admin
##zo
congré
garçons
pétro
Raoul
impu
accueill
décrets
vallée
485
applaudissements
FIN
colis
##oui
Parisienne
##chons
tiques
réglement
coupons
débarr
tribunaux
étions
compl
tombée
##auts
excessi
##illot
pittores
réalisé
##zy
Han
Herriot
Ram
270
seules
NORD
formul
Ke
présentés
##iger
Ferdin
##ët
renvoi
officiellement
rad
##oyez
céré
##dor
incul
réellement
coureurs
lea
engagés
voyons
##lig
ressent
puissent
##enaire
fièvre
adressées
barre
zèle
amén
Ut
##zet
heb
JL
##dt
##wi
S0
réel
institution
Rappel
fussent
138
alg
fausse
Clemenceau
aimable
douleurs
Cre
retent
électricité
inauguration
vien
nique
hall
coloniale
The
dommages
lor
révision
leçons
défilé
##manuel
OE
##iler
gardien
Clichy
##outchou
Tes
cambri
cp
oa
Pér
présidents
You
successivement
logement
naires
Réd
décide
récente
négociant
##qs
##cité
SPE
Barcel
frapper
rois
##odrome
126
495
retenir
précise
1869
Mercredi
Autrichiens
##alet
blâ
##tein
##hent
sénat
débit
conformément
ose
pire
##tia
experts
##nait
examin
##dicap
purement
sculp
extrêmes
protéger
gérant
sultan
gardiens
annex
manqué
morceaux
nel
partage
pais
Cabinet
brusquement
pp
centim
abandonn
Chab
conviction
remarque
livré
civilisation
régler
pénétrer
invitation
confrères
Cav
modeste
exercices
Sarag
trace
incap
Siège
automobiles
Fait
Ferdinand
##ATRE
dettes
##Ti
nomme
425
##allé
rôles
sections
##às
##nil
clients
intit
850
rur
avert
comporte
priés
MIN
neutr
129
parut
##élas
location
oreille
Chans
consol
recouv
aperçut
cc
Fourn
##ito
Tram
##gen
définitif
intellectu
réjou
##lova
Cop
##çonn
réé
jardins
##acre
colonnes
ët
susp
##inson
trône
revanche
vio
DIVERS
Nav
Poissonnière
##asi
Din
ais
chômage
és
subst
##ails
CENT
Départ
enlevé
défic
FEU
marqué
##ducteur
impati
saisir
##cad
soumettre
lycée
contact
goû
accepte
Cri
défaite
jaune
Internation
pitié
présidé
bret
##uv
##oyens
croiss
blessure
parlementaires
Amour
TRO
téléphone
Elysée
Pai
Los
observation
##ney
Rod
##aré
invité
##êle
infin
Mich
Buen
##titions
posée
problèmes
craign
##zième
leçon
##ôtres
##ings
142
quitte
montagne
expériences
classement
quartiers
##gard
déci
bronze
##bn
remarqué
Lin
éloge
##raille
vres
aile
DEMANDE
sation
275
rieur
dira
pne
##leu
##quare
réunie
##OLI
Pyrénées
circonscription
Sébast
raconte
livraison
gala
ravit
##fet
étroit
eurent
funè
##aissez
##antaine
mani
##erg
poussé
primi
##fo
rati
##tio
##toires
dépôts
rc
cite
Espagn
intermédi
sénateurs
##ôs
##dion
##ÉRA
glo
syndi
##rd
##enance
produ
Mis
Hélène
##édrale
banc
universelle
fermé
Jouissance
##vaux
Eure
therm
405
provoquer
touché
Casino
##mation
aurons
parfum
vague
revendications
seize
passée
Gib
Amsterdam
##AK
opposer
typ
##ouc
##ailleurs
proche
nôtre
Encore
##ouche
Bourbon
Loc
##sch
pagne
crâ
via
##clés
LU
constitué
##gères
Orsay
délicat
sachant
valet
##user
monop
##PP
cors
##UBL
##tat
gle
litre
dil
organes
destinés
suivent
Baz
plaid
courrier
Lal
##èche
##inture
##LO
Suède
Mir
bases
ry
ée
1936
To
Poli
opérette
aii
Inférieure
honne
opportun
expose
REP
Phil
Chan
journées
accour
##blée
vraisembl
##PTE
adres
anarch
passagers
Montpel
gage
##cées
réputation
largeur
jan
possibilité
##ancé
sergent
##oigne
1908
préparé
Fav
inscription
Dra
Déf
sincère
##eple
##euil
magne
vieil
aperçu
Sem
Roux
OOO
Ess
290
épouse
415
Thérèse
stric
abandonné
auxili
##oyée
rencontré
##agascar
faciliter
Tch
navale
Gaulois
Ten
consacré
iL
flat
FE
CRÉ
banques
##fu
OUV
##ufact
tér
timbres
convaincu
costume
Alpes
##anie
Vier
Hér
réduire
critiques
consist
Hit
frontières
Ottom
soudain
préférence
Dix
##fra
modifier
frag
brod
excurs
réussit
supprimer
##ld
Certes
Marche
Ordre
proie
##St
access
Premier
lente
ès
ané
##êne
hori
##hol
Voitures
pol
##ài
##ÈRE
velours
instruc
435
##Ut
ori
entouré
##giques
bancs
##jeu
##tian
arran
##amin
rendent
Paria
##ffi
##nies
##raphe
LOND
325
Général
préjudice
Emmanuel
134
##ono
##atlantique
##cieuse
apost
dangers
calmes
139
chain
cho
##eline
reçue
joindre
Gall
Conservatoire
Donc
cure
assaut
##ops
ih
##ombe
couple
##oven
chim
CI
brochure
liens
##ielles
DÉP
tragique
##olphe
solidarité
cesser
diver
sienne
chaleure
##ark
hôpitaux
bassin
##lib
##issé
lève
rétablir
##chets
Tunisie
magistrats
bulg
britanniques
sacrifices
rons
radicale
apprécier
immeubles
##tituer
Neuilly
pensions
##dra
José
contrô
205
espèces
##ichy
retrouve
##ere
##cell
1884
chances
Ouverture
FONDS
Petits
surplus
moul
Côte
##TH
Lat
rus
Gérard
Pop
alcool
##chin
exécuté
aupar
conclure
tendu
##ung
convoi
445
Ferry
##chine
dyn
approbation
songer
Vent
Soir
Tant
impro
##UITE
folie
trouble
salaire
essayer
Ric
rentré
Import
Chapelle
allocution
organise
##zé
largement
Moulin
recours
véhic
pourpar
##oct
Hervé
écoul
envi
Bismar
1877
voyageur
ardeur
bombarde
parla
atter
duit
capi
dossier
démocratie
##tet
épargne
##mans
arrivent
détour
véritables
boîte
Champagne
prouvé
##oriale
démarche
Annonces
stations
considéré
Actions
the
tière
215
Chac
lentement
Cés
ciété
guérir
cos
Stra
brou
camion
1937
injus
confond
Ball
réfléch
obligatoire
Auss
ruine
distinction
juill
pratiques
##eut
souveraine
Barcelone
##ïd
pût
grandi
triomph
Lafayette
hygiène
##Al
chamb
limites
##oyd
Parts
puissante
ballet
##queurs
recteur
blanches
##hy
passent
permettent
oublie
domic
résoudre
vante
cédé
installation
TÉ
##illeur
appelés
arrivait
régul
ini
Tint
PI
voudrais
BI
Verdun
465
tude
Ajoutons
conting
unanime
cig
dea
suites
##tto
##omo
aire
suffisamment
##uter
##ompé
Olymp
empêche
Dette
inhum
boulev
##armement
cune
reau
##duire
illu
aviateur
eo
fauteuil
136
Bord
##lez
escl
##ére
aurez
repoussé
envelopp
championnat
scrupu
CU
km
sable
obti
catégories
VALEURS
empru
Contre
##pire
rable
notaires
médioc
Monde
épaules
##énég
express
apprent
Somme
Publi
##mper
Norv
permettra
##çr
monst
##ionnaires
agricul
recueill
plans
orage
530
##SI
##CUL
aimé
perquis
sacrifice
##JU
##outon
approvision
##IIII
conserve
Montpellier
MOIS
##erc
nourrit
restés
titu
abandon
Aur
Consolid
infli
moti
Haut
Lui
favorables
plomb
participation
##émor
promenade
justifier
câ
##iète
PARISIEN
libéraux
présentent
##lion
féc
menu
##eraient
##issons
bienveill
##AIL
iï
adopter
##oureusement
Jui
##anges
wagons
braves
plé
Métro
Homme
Même
Aci
##burg
publiée
Arm
Droit
répète
##orel
##OBIL
laissa
XIII
incess
gratis
amélior
GÉN
humeur
sul
Haï
flammes
mener
Lisbonne
campagnes
tempête
dorm
##ortir
incendi
humain
ah
seur
##wa
porta
remboursement
##DIO
hongrois
Moli
poésie
dispers
duré
prisonnier
ane
rade
isol
consomma
##TU
hebdom
extension
concessions
##ea
lec
Madagascar
Moreau
rechercher
appr
occident
his
cassation
sagesse
couverts
lutter
mettant
vols
princes
##inté
arrêtée
##TR
accom
indications
tourner
525
##dide
##mun
##fn
commercial
ouvrit
visiteurs
délibération
Fille
##RET
grammes
voyages
mité
charmant
gymn
James
doyen
répli
appé
annonces
sortit
sl
lï
1er
Sèvres
##Ur
##itres
spéculation
rejoindre
disposé
saisie
formidable
Laff
Boulevard
PRES
fins
Pot
Exp
approuvé
désordre
juil
152
##eni
Bourgeois
Cœur
enqu
succurs
allaient
pointe
##tz
difficiles
forcés
étape
Mod
151
entraîner
défunt
##lain
vid
pharmacies
FOR
##MIN
nationales
tut
Syl
Dames
crimes
rayon
essence
supéri
Buenos
Clé
DB
renoncer
##DS
##fia
Nant
revint
monarchie
Lyonnais
institut
##lice
débuts
suisse
forment
menaces
laire
leva
inquiétude
##uaire
coût
##enay
##oun
sources
continent
wagon
##ôte
ponts
Bertrand
Pelle
Ça
fenêtres
##gnon
concerts
incontest
mécont
Personne
Septembre
compa
##dia
PETIT
tol
roses
455
##TIER
prévoy
trouvant
ki
Willi
douter
privé
enter
157
développer
##nit
Carnot
##FE
jeta
Commun
##ANTES
NOUVE
arrêta
chaude
quatorze
armé
dep
Folies
##lay
Extérieure
lard
créan
occupée
##phine
coupables
##ed
accusés
belges
Finances
Valeurs
vons
Yves
Vati
##rète
sûre
écrite
1865
sinistre
cinéma
LONDRES
tale
ESP
traduit
pilote
Petites
##END
blement
meil
##ualité
eus
tables
gratuit
breux
##gar
##ilson
présidée
##Ji
##mblées
XVI
##ritz
bords
apparence
Vichy
##âmes
égalité
assistaient
LI
sœurs
scientifique
avances
##oivent
chrétiens
##lons
démocratique
Iv
intrig
Dut
pleins
##aissent
##gea
##ONE
Neuve
précédentes
##PT
carre
##vit
##nu
sis
concession
pères
nui
Hamb
désar
costumes
fal
1886
versé
##uté
pard
163
##olis
Clermont
reur
roule
patriotisme
Halles
Agric
inves
protester
meurtrier
##fiée
maires
dei
Heu
Capuc
OUEST
Mot
cè
cherché
lits
recevra
applic
élab
modérés
àl
peux
poul
Jacob
situa
soutenue
ministérielle
exposer
constamment
suppose
fleuve
Vir
##mpes
pousser
144
Cout
cm
exiger
morceau
matinées
##issage
##oti
Berger
##faits
image
qn
disparition
##igle
##clésias
malfaiteurs
règles
connaissant
##îl
entrepren
##quise
dù
Code
##ffre
mondi
##RANS
acier
bourse
##gation
plaign
vriers
ois
bandes
relève
épée
irrit
haies
nets
meurtre
##ûr
Jl
pourparlers
persist
##iellement
##87
##voit
Femme
land
trésorier
atmosphère
OP
##aillant
rapides
Pach
##ko
Quar
##ESS
##pie
1887
##ignements
##în
Océ
##asseur
Bud
sence
Gor
descendre
caserne
##otb
douan
Vieux
##ysion
Moniteur
##enta
fols
désastre
##zar
abatt
mettait
Sébastopol
aimait
##lait
verte
sceaux
transmis
sentait
opérer
vrier
portés
détruire
conservateur
##avie
uniforme
més
##ionnaire
Aucune
aboutir
déficit
établisse
recette
lapins
effectuer
235
William
N°
Supp
fui
avouer
vieillard
Arr
certitude
Ais
compose
soigne
ib
sports
consi
larges
foire
résol
centimètres
espace
##dienne
CAM
vendeurs
velles
auparavant
commissariat
supérieurs
##audet
financiers
##cos
##itait
Répu
pelle
treize
315
1860
143
rieure
Indes
##èves
Magasins
eussent
Schu
verts
##illés
adoptée
convi
àu
nis
##YS
german
inév
pans
ell
##inique
accordée
parag
3e
calom
Compagnies
sangl
Bol
honneurs
claire
Japonais
##IERE
admission
##Un
interpellation
populaires
justifi
##mur
159
##eck
rupture
Leurs
truction
huitième
147
nerv
##ourd
actuelles
Nouvelles
My
##vs
##teuil
cave
##ater
mette
conçu
##rié
pharmacie
##arl
141
çon
BER
regarder
restée
moutons
instin
recommen
Beaux
contempor
orph
établit
sommeil
comités
##ml
Hauss
##uu
Puy
##ffes
parisiens
malheureusement
honte
rapporte
allusion
affranch
identité
rière
hipp
prudence
supériorité
dii
drag
devint
##çaient
bours
obligés
nelle
Abbé
offerte
gravures
5°
photograph
PAL
rhum
vég
305
Id
venons
montrent
172
développe
Aussitôt
##tons
##ribles
japonais
inscrire
Tendance
ving
tissus
complément
iron
Rot
fants
dence
##gos
##riotes
Lés
Saragosse
foie
Dumas
Lombards
sombre
Nazaire
munitions
tabac
Roth
Clôt
tais
Hel
##lii
souffrir
##cules
actuels
lun
153
industries
ouverts
logis
##énique
##ERRE
Doumer
espagnols
##heim
jl
Américains
Blum
connaissait
ence
exa
poursuite
pharmacien
signer
résidence
projec
Suivant
acheté
sn
séparation
commencera
ecclésias
mandé
réorgan
gratuite
Adam
construit
Mol
volé
Selon
positi
aum
1915
Bach
Ki
Guil
lié
HP
Gob
vrais
rin
répéter
POS
pist
Lloyd
##Me
villages
tas
ému
tribu
Mati
levé
envoyée
mic
raisonn
précautions
cathédrale
dait
pul
Oc
accorde
VILLE
##teries
Gouvernement
Duval
##illée
##rade
##He
proxim
Yvonne
étouff
fatigue
##raction
préfets
Sul
##éraires
sursis
révol
nonce
niais
167
dizaine
noter
harmonie
##ANCES
amnis
rl
171
##olat
##esseur
##ela
PREM
Mine
églises
Ouen
Chevalier
gion
rf
secré
##ilt
réservée
Escompte
Maria
inéd
##asions
Miller
Envoi
télé
rempla
cens
##pentier
famili
##hn
facilité
examiné
##alon
##ertion
condamnation
participer
tournée
##vost
illustré
interprétation
responsable
affecté
inou
ept
ide
Neuf
##aillot
vastes
ster
##char
Savoie
Mayenne
avocats
industrielle
traditions
Mary
##agère
exportation
révolutionnaires
Lambert
Algérien
portug
Méri
pât
valoir
taill
Pres
souvient
##tification
indus
corde
Terre
VIE
demandée
visible
adhésion
effectué
Congo
financières
augmenté
avoue
hebdomad
Ramb
Hitler
##illards
1848
##assée
##jf
supposer
aviateurs
##poration
Vincennes
Bell
arrivant
obus
éditeur
mettra
sult
##illo
##aur
chand
attirer
CHAU
West
laissent
saient
Canada
COMMERCE
graph
##mu
##omte
puits
trai
335
arbre
audition
##iei
##UG
sonnes
linge
Chinois
##ièmes
##uant
richesse
habitation
principalement
accuse
transactions
journalistes
anglo
opi
semblables
différen
prier
proportions
Nar
victor
organisations
trouvée
prévenus
##liques
volontaires
Situ
JO
précédemment
suspend
Guér
##qi
Irlande
masses
##pus
##neaux
conservé
##llllllll
##cial
Cord
Lie
présentée
##mil
retourner
##VES
##viendrait
horrible
##nasse
oreilles
résister
bilan
Wilson
##valides
chers
Gene
##ôr
Messageries
événe
##fit
accueilli
quet
##Us
##deaux
177
joueurs
européenne
Vars
##illeton
déchar
êt
construire
##yi
385
marchande
Sté
##endez
désinté
Orne
MATIN
ELE
##anou
couvrir
autrichien
##aparte
Pourtant
jp
acadé
503
Cloud
inspecteurs
traversée
séries
Soud
##meurs
##cb
tun
Calvados
énormes
méthodes
##cence
TRI
sante
cs
##ueille
sièges
Beaucoup
##gies
physion
Demande
tembre
radio
aï
##ack
vécu
conversations
épaule
##obilier
défendu
AFF
##oies
secrétaires
satisfaire
Liv
passions
Aix
économies
##euses
tempor
desse
Autom
##erine
Sat
##ransige
##ropolitain
##loie
évêques
Not
chrétienne
localité
Vosges
##CTION
récol
gon
divisions
remplacé
instituteurs
généreux
bén
rétablissement
suffi
##cit
dresser
MAG
écrivains
pec
étalent
manifesté
GAZ
Mozart
adminis
afric
besogne
allée
ABONNEMENTS
Echo
félicitations
##isait
LIT
##bons
tau
paysan
pourvu
bicyclette
##mas
aggra
##isser
aise
faim
Point
diminuer
éminent
HAV
##rup
##ùt
arbitrage
sensiblement
souffrances
Etablissements
sti
Seulement
sien
siens
##quide
##inée
Plan
TOUR
soust
Beers
##avres
2S
dirigée
doigts
laï
Hongrois
##inés
LYON
conver
Tandis
Républi
Molière
Uni
cœurs
Entente
##fon
395
##éronau
FRANCS
mystère
##Te
Baron
Lorsqu
dispens
jolies
embarras
baissé
boire
Spé
Bains
Dj
Girard
mt
promesses
perspec
##HI
légis
procédure
HUI
##zig
XIV
SOCIÉTÉ
appelait
tm
comptait
tesse
poulets
fermer
prim
dépasse
NOS
tées
doctr
Germaine
ooo
guérison
désert
Tribunal
croiseur
amant
malin
Maine
##étail
incor
aie
Ze
ronde
décour
##CIAL
révo
Docteur
César
grès
lë
présentait
dévo
versement
Marthe
votée
renversé
jambe
Victoire
154
Venise
Capucines
Déc
pétition
178
statuts
traces
fonctionnaire
entretenir
bœufs
##élité
apr
industrielles
roues
régulièrement
##ênes
eft
MARCH
##éo
attaquer
insign
Concours
légation
organisme
##visions
Caillaux
CRÉDIT
Vig
librairie
Vatican
souffle
spont
trouveront
soign
MAI
serai
ïi
Voyage
sente
éme
trer
Cra
##rens
##ENTI
enfans
ms
##ceptions
étoff
moyennant
011
##tib
1863
prière
patronage
patriotique
aisément
Marseill
têtes
162
INDUST
##nal
psy
aîné
##OUL
délicate
##ford
But
##CIE
tro
assurée
arsen
##ilie
ml
occupés
handicap
obtient
classique
Tourn
proximité
##ifiée
tj
##inage
constructions
appelée
avoine
ballon
explication
élimin
1867
##ato
Alexand
oit
verser
épouvant
##ressé
discussions
Bonnet
paie
chair
étroite
battant
##irer
secteur
constituent
boutique
##vera
Bul
authent
gers
Bureaux
##aque
LO
##rente
suicide
confié
excéd
##illez
156
##asp
Hubert
ramener
161
Vins
##dio
##geons
##estation
exprim
turc
eue
mitraille
music
##renne
Bâ
affiche
çt
pourv
##êr
trott
annoncent
méri
obtenus
Hab
écurie
pâle
db
##teaux
##mme
##roix
rations
sympathique
défenseur
coupé
##vons
##veurs
garni
continua
Malheure
NATION
Aisne
mait
560
surface
souverains
secondes
cache
OBL
##ETTE
Août
adhérents
marks
##rue
Gol
Marchand
laissait
Sarthe
VII
##ançon
##lio
lumine
informé
Tot
ruines
Variétés
##oua
Lour
##92
chag
##UEL
installé
##ISTE
phénom
plantes
365
tendances
deur
liq
attache
##illité
ié
pror
##omin
mélo
opposé
asile
anonyme
##zac
relatifs
207
patri
##ilié
dig
##FS
troi
FRANÇAISE
solennelle
élégante
Roc
erreurs
Wagner
##rateur
éclairage
##gnac
Canal
bous
Dieppe
Nan
Bab
tuber
dernièrement
représenté
##ralement
renom
bac
ous
mauvaises
tage
##ih
355
##blement
emplois
ciers
transporter
bur
Riche
symb
modéré
##voie
Haye
jt
régn
dar
normal
précision
polonais
146
récent
Gymn
Tuil
souscrip
Gon
Bismarck
ved
lf
gravement
exigences
Maisons
##gel
Première
##OTRE
addition
archi
Victoria
recueilli
Chic
Journée
625
1000
Mail
bot
trafic
diable
##iée
causer
modification
pensées
airs
éprouvé
Auber
Reichstag
Grenoble
pendu
ventre
mainte
conservateurs
plaît
douanes
##ario
Ques
téléphon
tax
IC
mandant
173
interrogatoire
primaire
tentatives
engagée
Francfort
élégant
NOUVELLES
manufact
cocher
Front
Montpar
##licite
610
Anton
Renaud
frs
Vu
cuisinière
prononcée
cadres
ottomane
##homme
mys
Aciéries
580
1852
confirme
colonial
décéd
regards
540
régiments
Fam
empois
philosophie
ébran
subitement
nd
vicaire
désarmement
Loir
dissolution
cycliste
aù
##aissait
CHEMINS
Perp
crâne
jette
apparition
cembre
Chare
PU
rendement
##iciers
gner
##ÈRES
distingué
BONS
Ij
ressortir
croyez
traitements
compromet
immédiat
bav
faisons
Mut
espérances
##los
##IGN
tint
##isseurs
##étique
tain
bruy
souffert
passés
vulg
df
148
recrutement
##OSI
512
##aillement
Pharma
##érieurement
Tl
nne
serment
consacrée
##hab
Vendée
##agré
ordonné
endroits
résid
selle
##uii
Biar
mécanique
rua
##♦♦
##endes
##vaient
Cyr
Meyer
Acc
##uils
successeur
rayons
mixte
Océan
adjudication
##ancourt
##ood
devraient
totalité
automne
invite
lil
Café
166
atteints
Arti
cellu
168
Exc
prétent
##ciation
accompagnée
Wil
TROIS
réclamations
Varsovie
Mr
paye
lnstitut
préalable
##mr
Sole
lux
voile
##ûs
reins
##eh
##angé
alimentation
répon
proposer
habite
##brun
ix
##IA
1897
écrou
##çi
##sive
obstacles
rival
##ican
siff
libert
incompar
Deu
##oines
peines
intes
luttes
##jp
élégance
sanction
rebelles
pétrole
Patrie
paire
lons
Renaissance
##GRA
affirmé
supporter
Dant
Bergère
réparation
iO
iV
épis
enveloppe
ingénieurs
prolon
Marti
poing
échéance
BEL
mands
permettant
touch
imprud
##elot
lecteur
##bach
envie
950
inquiét
dance
ère
##ARO
630
Vid
révolte
compagnons
Rac
##ièce
##gt
##zer
##ctes
prononce
poursuites
administrative
Auver
fameuse
nl
Chacun
##ossé
démontrer
285
Lits
##RS
502
grains
étendu
##mblement
Débats
serais
Red
Clôture
possibles
8°
Od
Fond
##érables
théorie
cf
Mém
rach
tont
nuageux
misérable
compromis
RADIO
dignes
approche
délégations
Beur
orgueil
176
##tifie
DO
agression
aviez
sauvé
Ayant
tures
##otball
cep
diocèse
flor
élèvent
métall
Tard
Temp
conquête
##iew
adr
##mette
desquels
privilég
voient
##rii
##cherie
remplace
##ERE
##cheux
lation
dispose
Bill
##ulée
musicale
passages
##four
Wol
M°
présen
Caz
attractions
Cologne
substitut
Pon
##fran
revoir
Pharmacie
Ue
##RY
sit
403
Leroy
##rétion
caractéris
obstacle
##ANTE
##isez
protestations
branches
Asie
Dupont
Hay
##kan
venge
mène
imagination
inculpé
parent
##tifié
chanté
coal
colo
##rom
dement
##oche
bond
animal
##cure
noua
##tront
Electricité
élite
désespoir
commerciales
secrétariat
maintient
bataillons
VINS
Tan
réussir
Jér
Sept
PROPRI
Disp
consulter
##èges
lourds
Bonaparte
tailleur
Roub
vision
vivants
rand
noires
garage
vices
écrivait
##ASSE
tum
##ym
##acés
##acer
lass
permission
Rappelons
rapidité
Oi
élevées
##èses
Tinto
Ami
iin
soviétique
guéri
##andin
Say
comble
fusion
attente
1873
garanti
farine
##BATS
295
##tresse
officielles
cerc
nommée
Beu
afflu
##ICI
##rict
glais
##Je
intéressantes
mineur
##uent
##irard
##JE
curieuse
##ENTES
##dir
jouiss
##issi
rub
Défense
ame
RUS
succession
accords
tte
émig
essentiel
Administration
412
##ulaires
##Le
##ophe
démarches
Cur
dépass
Lamar
##ographique
##mide
prestige
##ductions
620
fédération
quantités
##33
ligue
Tonkin
montagnes
158
collaborateur
activement
##orat
Ht
ain
eii
Luc
##quiers
effectif
plage
Hambourg
##ections
lice
##aln
collègue
Jau
##ÉES
ht
plaindre
Pacha
compléter
##91
courants
suicid
funèbre
civiles
excellents
détachement
##VV
ALLE
##onction
##AUD
Perpignan
##çt
ox
265
##mentation
prétendu
clarté
##ané
##icier
##elins
valu
dito
Pascal
enfance
##orial
croient
écho
brisé
débris
Dev
Alliés
feux
345
1878
FA
vicomtesse
##uile
lnd
finalement
Sen
liers
tim
##zes
##itées
voire
##ller
##cht
##cd
##présent
Tuileries
BL
Bot
terri
174
privilège
##MS
enver
##éna
échant
enregistre
marbre
##aph
habitudes
unités
Matinées
jr
Chartres
##oises
##étér
instance
emmen
##landais
##ÉT
acheteur
précon
tionale
récompense
fonctionnement
##opin
maîtr
hélas
Num
Sm
fondation
médailles
Octobre
dégage
507
réunit
Gironde
échelle
octr
XX
EC
obstin
##UES
mir
Demand
##tta
affections
1938
Tché
célèbres
reprod
gères
Ventes
îl
déclarant
désignés
centres
fabricant
neuve
##chen
formant
GRANDE
##geait
Cub
hér
appétit
mouve
Chef
Quin
##TIN
Danem
Meur
présentant
comparti
Corres
indirec
##alo
##ÏÏ
407
emporté
secrets
Antin
cadavres
architecte
SB
##UIL
adap
Meuse
ÉTRAN
##royable
##house
monarch
##oyers
améliorer
banquier
imparti
gagnant
Février
Limoges
armés
compatriotes
remett
##ox
emprunts
##TEURS
connaissent
unis
déterminé
Corps
message
couche
éd
cueil
Passy
méconn
##rano
précédents
##mait
disponi
ile
pacifique
conforme
##ériens
##fiant
##vais
Rece
retraites
##dres
##ènt
neutralité
ést
râ
végét
570
##KE
##onna
ACH
prirent
PART
respecter
212
illusion
reuse
opt
présenta
PORT
AVIS
##ertoire
Mrs
TÉLÉ
Tok
##ilo
##ERIES
##omét
Ceci
##ethoven
héroï
##bin
##aguère
hôtels
OO
##riez
fautes
##aga
domestiques
suffrages
traduction
BURE
FEM
étonne
Adresse
##IO
rot
##adel
décer
voudra
Ross
##Hi
dégager
dée
Dépêche
holland
voua
Alice
CAN
Ley
électoral
odeur
Maréchal
##tan
socia
tsar
mariée
Parce
suspens
sélection
efficacité
eon
brillants
terminant
##rateurs
DEN
souffre
##OME
destruction
Fête
EMPL
pénétré
nourriture
dragons
atro
marquer
arrivera
##cm
##IQUES
dépassé
intellig
245
rué
prononcés
##ignons
complice
##ouin
cabine
prompte
Cannes
##eul
##enberg
GE
succombé
rigueur
mères
amoureux
##fî
time
AVE
ost
partira
sauter
PUBL
##ava
##alis
##zot
##ïsme
##99
confection
voc
budg
ITAL
##TA
générai
Hil
télégraphique
douteux
##èl
tournant
##uellement
Près
minorité
vée
cercles
##ache
immens
##pour
vertus
intéresse
fâche
chantiers
hebdomadaire
promesse
gol
frappe
gement
##neuve
amenés
parer
tramways
Stan
criti
carr
adoption
bibliothèque
inqu
fléch
sixième
dangereuse
##COM
##pôt
légale
commença
Garde
revi
QUI
inatt
##ona
##venue
sportive
voil
nett
partit
Augustin
##entin
##vions
##quemment
taxes
##pice
cachet
##gate
Daniel
##bor
##geoise
grâ
VIN
quis
créée
empris
##ouches
NOUVEAU
Propri
255
##AIR
Pâques
Vall
soupç
analyse
Extr
##geot
SPÉ
retenu
pian
DEP
Poule
Beethoven
chanoine
échoué
Turin
Courrier
étendre
multiples
##GO
##bleau
dirait
Ui
Telle
intermédiaire
Royale
folle
locale
venues
rain
pensait
montée
##cient
Finistère
Boh
rêt
##çn
physionomie
Catherine
horreur
FEUILLET
particulières
164
##vaal
annonçant
boit
js
1916
bombes
hauss
occupait
508
401
Marin
brûl
Mairie
Autre
##qù
##apes
dirigeants
Vert
crier
magnifiques
##ICE
déposition
revê
abouti
faillite
Lion
disons
locales
décla
crut
pousse
Norvège
vingtaine
suffisante
manteau
1™
Bulletin
Caire
Adolphe
Rochefort
##eri
##bour
##quets
coté
BRI
##31
serez
Gom
201
renfort
Siècle
spectacles
##oult
restant
progressi
surg
qi
Barbier
prolét
éga
sterling
Hipp
Bad
##acc
Imprimerie
désagré
fillette
visites
chat
ressemble
ridicule
gouvern
Resta
##IÈRE
traire
lll
quintaux
##ROS
##IGNE
dits
vélo
coutume
##dul
CREDIT
##mons
Sign
##puy
##PARTEMENTS
Boulanger
mation
Gué
##oton
vembre
touchant
redou
##istres
déterminer
Sovie
SC
conducteur
corpor
désirer
chôme
DIMAN
##levé
tains
##enaient
seurs
rappelons
Tanger
éi
saisit
pittoresque
batteries
Orchestre
Rl
ig
coc
pontif
CR
contrac
bain
fié
Flor
Austr
##ombres
applaudir
miers
crue
Dak
façade
Mobilier
Bess
Gaut
##euf
chaîne
suf
minu
Coul
Ét
##onnage
##ENNE
Reg
##gestion
##dirent
PAP
contributions
exemples
plénip
écrits
##utés
Gymnase
##alogues
renouvellement
##ousie
##nité
##olini
Stu
Soviets
Maître
doucement
CAPIT
interprète
Berne
##zin
remporté
Rense
##zel
merveilleuse
combinaison
##leux
scul
dresse
##ànt
Béné
##chal
##aureaux
Pain
popu
Jt
##amite
Nat
Brit
reproduit
pus
honoraire
plaintes
suspec
##AINS
fermée
Vierge
féliciter
##tières
régulier
Morbi
Soc
Kl
dues
illumin
Œuvre
manches
insiste
COURSES
590
Guyot
Tabacs
Renault
##sif
Basse
##èdes
accompl
mutuel
tranchées
démontré
proteste
détache
487
ailes
sauvet
##DAC
East
nues
##êve
glorieux
raconté
##aia
##blés
vole
##aue
recueillir
Danemark
septième
perdue
testa
réa
coopéra
206
occupent
Cos
tô
Amer
Sarah
admett
dressé
##hardt
Egyp
GRA
ruo
Armée
gleterre
voisinage
##JS
##ouvier
seuil
##nières
clairement
##clie
aérienne
victoires
dispo
montra
##ayer
402
clubs
##auff
Ange
bombardement
Sorbonne
POU
##llé
fusils
regrette
sô
bête
reconnais
Gilbert
complices
Bate
Saône
OBLIG
immobil
Evi
##rains
XI
Toujours
##arin
Lettres
Pékin
gues
certificat
##chaient
diplomatiques
ares
Montparnasse
langues
chanson
trajet
futur
itin
patience
héroïque
##iir
saura
##BOUR
##chette
472
remarquables
Inde
vendues
rude
##ép
##lions
##agan
ïe
Résult
subvention
3S
criminelle
##titudes
##ruc
réunies
Malheureusement
DIS
Arg
quotidien
blée
Fil
cile
fll
dq
##agent
Noire
Thib
rents
##treet
audace
Imm
Brie
affiches
fous
neveu
omnibus
sépare
terreur
cés
Mm
tranquillité
##olyte
pom
trompe
jouée
gig
mobilisation
vienne
barbe
postal
agrément
simplicité
tations
Sér
avancé
restaur
##enez
prévoit
inévitable
##lanca
orientale
mord
TT
perles
massi
ralent
##fèvre
volontaire
##pot
riv
dénon
CHEV
arist
correctionnel
centaine
FIL
sincérité
Sports
trouvés
écr
##GN
gd
duel
##rèrent
passera
rance
équipages
##erts
espérance
êtres
naguère
Morel
REV
nuis
##atine
mac
éto
aurions
aurai
##yss
##arc
territoires
Biarritz
cerveau
##amé
hectolit
##rf
cylin
##mne
##ury
fraction
renvoyé
##èvre
FEUILLETON
##phin
aris
##rante
##ETS
MARI
précédé
pacha
Polon
préser
iC
évolution
paragraphe
TRANS
employée
salué
Inform
mû
2®
GRAT
Consid
plaine
Sporti
capables
Ancien
Livre
##phy
lieuten
pic
fidélité
##ueur
infailli
Intér
offrent
prétentions
remor
##chez
produi
attiré
pô
manquent
ciens
immé
##ûe
amnistie
##ân
##osité
Théod
##fel
det
vaincre
##reint
socialisme
##uries
exclus
##ifier
Post
aspi
##itoire
var
Magenta
fondateur
Liberté
incons
éteint
avee
nistère
##jean
##ultes
missions
Sw
##ouverture
abords
réfugiés
licen
musul
437
impossibilité
##gnes
Casab
Corne
MU
680
517
Frey
violemment
insurgés
Millerand
FO
411
pareils
fixés
Rus
révolu
198
exerce
savants
##èi
FL
péd
voleur
charger
575
Pasteur
régulière
ita
ià
dirai
sr
##up
flamb
##tide
écou
Métropolitain
Faust
##inger
quement
##até
éprouve
Auteuil
couronnes
joyeux
Lep
##ector
rela
208
guérit
Gerv
##xic
redoutable
Chron
ambul
qne
aval
Montre
MIL
cacher
Chamber
servant
463
assurément
caoutchou
##ISTRA
attendent
##ardon
corn
Obs
entrain
légiti
exécutif
enchant
Néanmoins
HY
d©
Gai
éloquence
scolaire
##rang
bonté
Gav
libertés
##orth
souf
Corse
correspondants
408
##bb
cléric
##UV
##cio
##nces
manuscrits
Oblig
##nera
Avenue
Téléphone
bienfaisance
drait
dai
Marty
tombés
Vern
Prague
MEU
fourr
antique
singulière
MET
brigadier
sortis
seille
ample
Gent
autorisés
compé
cède
Px
splendide
fn
indignation
conduits
renouveler
##schild
Nul
149
660
THEATRE
débou
Gautier
turque
cahier
Charente
##îr
Spect
312
Mathieu
Lap
Strauss
chol
Mercier
Gay
JJ
illustr
Bag
abondance
formée
##prop
Allons
Ens
11e
poules
MARSE
légal
ours
nouveauté
##tifications
insurrection
##ador
agresse
##ITES
couper
alt
Valen
manifestants
stra
rine
##qr
cafés
value
chansons
418
compagnon
portraits
Atlantique
492
terribles
hyd
entendit
Colombes
blanch
travaillé
216
considérations
Pilules
##velt
Obi
VOUS
##rande
fumée
##àit
##LS
lament
attribuer
Charent
set
##ussy
publiés
assemblées
211
signée
##rix
##ontein
##000
veiller
dact
stupé
640
lir
##cembre
Certains
##uriers
lourdes
##ANG
Libre
Etranger
PRÉS
chronique
oon
##41
vivres
morales
textes
1830
sympathies
Monn
cie
##cet
Pes
protect
regrets
lancer
ouvertes
ramené
interrom
Morbihan
##olette
##lS
FONCIER
mémo
hostilités
Invalides
##avier
535
Cité
##CRE
##anç
aéronau
impératrice
gagnent
##RIQUE
bouteille
BELLE
conciliation
servent
exis
Aim
paroisse
POR
203
permanence
trouvons
Séance
inscriptions
décidée
extraordinaires
##iffel
gique
navales
432
rieux
saluer
433
Verne
mérité
Parquet
contraint
demandons
##gles
prières
représentent
hal
carré
divin
##pices
détaill
réparer
récentes
##grade
bus
oppose
fact
SOUR
Vilaine
satin
collaborateurs
tai
Table
émo
Adrien
démonstration
contenu
##HS
abaiss
résolutions
Sand
jouir
##ww
prai
##celles
Hall
voulaient
##ficie
payement
arrestations
famil
Mare
JS
£0
Maladies
Léop
tem
Deep
choux
diffé
##uen
nif
éprouver
valent
Coi
tuation
Castel
interrogé
tiend
chœur
librement
décou
fû
##eli
contes
caractères
##ancée
encad
##érants
##cir
exceptionnelle
voleurs
sauvetage
lô
fol
Bob
désespéré
habileté
complot
Pomp
bijou
cis
##vt
Belges
Seul
##lude
sist
revenait
personnalité
##cra
comprendra
mander
4S
169
confier
##nne
Rothschild
embarr
War
confé
##anl
##LA
indifférent
Nuit
douceur
tromper
##émat
CONF
complets
Vand
Grenelle
forfait
poisson
faires
ADMIN
empêché
Monaco
épaisse
##ameau
##gin
Hard
règlements
VU
pf
prétention
##raires
plénipot
##alre
##ases
américaines
Humbert
infortun
TRAV
rir
Boiss
##oisy
##onges
Bibli
liaison
Thomson
reproduction
relèvement
Jeunesse
213
##TTE
##OP
mante
fract
torpilleurs
traverser
##ORM
Juliette
Pom
encourage
gâ
483
##oureuses
Commune
enchère
gel
##fiques
Fils
cultes
serr
défenseurs
Préf
inscri
Lévy
Berry
Bayonne
518
pagnie
dépose
contribué
jouis
Offic
consacrer
##iU
SANS
assurés
imper
prescrit
informer
horizon
considé
Télég
Madem
étages
terrasse
Léo
##iis
rd
survi
expériment
locataires
##rô
Dakar
ER
imb
218
guet
correspon
##OUX
descente
##BI
Championnat
énergiquement
##EUX
##isserie
##urgie
noblesse
ov
477
bêtes
Prof
oeuvre
responsabilités
##cau
##CU
panne
Dent
Cest
forêts
Combes
##AULT
##ota
Nations
prêté
Inté
intéressants
révél
mous
proclamation
danses
Pay
inhumation
452
ben
gné
##tell
gla
tactique
Mt
##fii
bombard
prédé
octroi
##und
latin
acide
fallut
Fan
##ogra
renseignement
sacré
oii
Chicago
BOIS
consti
innomb
##mistice
remises
##onomie
##osition
##onses
##allois
760
Mam
453
##vey
Eiffel
OCC
Fougères
enceinte
ïa
délicieux
##cts
justes
Empl
préciser
goutte
Belgrade
monta
sûrement
417
pressé
signes
Colonies
valse
##RAI
Roose
413
##urière
Besançon
légion
Lut
##resses
tration
457
enten
SPECT
497
occa
Lee
##toral
ons
copie
inconvén
NANTES
auditeurs
pet
genoux
anne
Dol
Palace
chirurg
Correspond
accrois
Casablanca
contenance
##cen
Boucher
##vième
##hit
PAT
maman
existent
##aîté
historiques
##sy
appartements
noi
invention
séparer
Garonne
statut
Dess
illég
##ailly
mystérieux
ambition
suffisant
Florence
493
##OMB
Vieille
rentrés
espérons
psych
seau
brusque
##qt
Musée
recourir
482
trée
Roussel
##aU
##enh
liquide
217
vivait
##imens
Mussolini
6°
tention
##dine
déclarent
veill
iT
nerveux
tél
LIB
Médecine
Sard
peintres
##acht
##tivité
##nard
##assiers
BONNE
condamne
SUITE
trahison
correc
maroc
exposés
vêtu
##iri
états
triple
447
Gand
sentant
Billets
Ku
CAT
Jack
supérieures
498
##fil
##las
Bourb
##ottage
mence
descendu
parvenu
##vette
gnie
retire
##issants
Valent
effectifs
##ouville
secondaire
privés
inutiles
artific
Marseillaise
abattu
670
Cart
Ech
tif
existait
##othéc
Fant
##MEDI
##44
querelle
VOL
BA
Extrême
adressant
domine
intéres
Oa
##octur
comptabilité
directes
VER
vaincu
cultivateurs
Vannes
Sin
témoignages
outill
##ouve
réflexions
Loubet
##quaient
##ONG
électri
ivres
Tramways
souscriptions
maintes
tendresse
Bil
1866
interpel
lmp
462
couture
333
rentre
##péri
édit
audac
délivré
inspire
Chanson
collision
Iss
bétail
478
héritier
analogue
##ëns
tron
##ionnats
lution
##ïr
Auvergne
voya
contenait
couvent
ayons
époques
produc
Op
DEM
Bt
##onnaise
quent
proprement
fiance
douane
##yre
ferai
créanciers
ADMINISTRA
Bout
301
invasion
fruit
tempéra
hardi
choisis
repousser
##cipé
##taient
##tuellement
##pool
célébrer
ticu
##RAL
médical
Troy
oli
ill
Grange
Lel
bulgare
facilités
fermeture
Coc
Nog
Bail
sard
commandes
##bvre
rideau
récompenses
trie
##osc
fug
détente
chants
connues
##bt
répertoire
législa
restreint
douloureuse
251
réclamé
Syrie
##ieuc
apais
MAGAS
##tiv
appartiennent
Frères
LUN
Stand
ROB
Vingt
arc
fia
applique
##osses
473
##sey
##ouf
HOM
##ffier
##uin
##ket
gestes
sez
bile
genres
traversé
Santé
dise
222
avalent
Sold
Tam
##gnier
720
Boyer
##CHER
refu
commencent
soumise
506
déval
répri
##hme
dates
##ueuses
##tral
phrases
lU
fense
Poit
déposée
##tar
communs
Indé
Sébas
brav
réform
convoqués
bottes
ùn
rection
##lège
##veillé
osé
intitulé
délibérations
égyptien
Sportive
bapt
anéant
interdiction
467
##uelles
arracher
##IENS
Gênes
DIMANCHE
bandits
fj
tourne
Daudet
##illent
semblée
décida
matéri
Aus
cend
doctrines
remonter
##wr
##AISE
utiliser
infiniment
lyonnais
##coslova
##Sj
bouteilles
musiciens
chanter
##PR
Quai
installer
escomp
AVEC
CAS
démenti
sures
##bar
##MEUB
Boy
DOU
souples
circu
ceinture
permanente
disponibles
jurés
appliqué
780
##lec
aes
cidre
Honneur
froide
##76
Reyn
attribué
saires
admirer
##chan
habituel
sise
emporter
##enl
fausses
sain
franchise
lect
##ART
Cote
statistique
Nove
rétabli
Quentin
livrés
subit
Blés
correctionnelle
Course
tramway
associé
revenant
fortifi
purent
autorisée
absur
remonte
Franck
sà
diplomatie
##énients
##bois
UU
Série
Fêtes
lc
plate
##ouette
##ery
formellement
ressembl
Transvaal
##viève
##mai
honnêtes
202
pagn
toux
SPECTAC
vivante
615
valables
consenti
Cuba
journaliste
commerciaux
auditoire
Vaudeville
iis
Printemps
Internationale
EXPOSI
susceptible
##fiés
Croiss
##minaire
conception
déposés
IA
prodig
banquiers
compétence
ART
échanges
spor
##RON
offerts
répression
##vra
Loi
adopte
soutient
488
localités
indication
favoriser
Lt
souple
##issa
Chi
##tines
FIG
user
##agon
Barthou
cousin
préparatifs
Star
##gédie
nerve
Kar
Plu
émer
IH
nies
adressés
Secrét
carac
Wall
violentes
##éi
Juan
stup
attelé
désigner
groupements
consoli
délé
tera
710
199
##uret
exal
monopole
figures
Dimanches
boulevards
ébl
##wt
coûté
Enfants
reçoivent
assistait
##pres
boutons
réduite
##nette
interval
HEN
Chev
dm
professionnels
ravitaillement
chin
délivrés
célib
##angh
Reu
##eron
expuls
passionn
COMMUN
diminué
doublé
Tol
code
Heur
458
partent
Confédération
una
vigne
étudié
Combien
équiv
somp
##pine
Dist
Parf
##agées
Tardieu
az
307
Rey
gestion
Belfort
Vaug
trompé
Spéci
Janv
retran
##mies
recevait
##ifie
##fiel
##oléances
eti
taines
clef
désireux
irrégu
##ologue
parlent
##estations
##dée
Corn
lampe
##det
confiée
##dive
GENER
##chera
rompre
moteurs
inspiré
##INT
##OD
##bec
INS
pert
détourn
Frank
remet
nécessités
BOR
Divers
électriques
logé
Symph
Rub
cigare
sot
vagues
crist
aboli
##céd
noncé
duire
aban
Poste
vaud
ari
lités
envisager
Mah
réservés
flamme
Sn
##Mt
aristocra
UNION
apprit
rejeté
Renard
Roubaix
recommandé
procl
tracé
steeple
##amme
##Ai
##sr
préside
planches
entrées
Excelle
Poul
Intérieur
Montagne
écarter
Mile
écouter
gué
Thier
dustrie
##ian
impressions
ARG
Fri
métaux
RH
##atte
Trait
chômeurs
blessée
manifester
Win
venez
revendi
aveux
Mille
dési
judiciaires
fonder
504
confl
expi
troup
##uler
portées
excellence
414
avantageux
Lai
carrés
sympt
Dupuy
techniques
Schne
Ensuite
Ei
##Ml
annonçait
303
##atl
nit
opéré
Bourges
228
ïl
gaieté
appoint
tenues
1882
Garnier
##onnette
poètes
Tru
guide
prévisions
référ
grèves
princi
actifs
##ef
quitta
arguments
3a
Librairie
autos
considérée
libérale
Marg
abonnements
513
Bec
mirent
plis
Gro
révèle
écu
oiseaux
bourgeoise
Olivier
serons
Jon
paralys
509
cup
marquée
nationalité
##igo
Disponible
immenses
##owski
cieux
Marcelle
Fontainebleau
recommande
garantis
Bond
442
gain
dà
##lein
remercier
##mberg
##âl
Attendu
406
POLI
rapporté
marches
HA
pru
Cast
incomparable
entrepreneur
##nf
désirent
2i
moments
commerçant
sincères
présentées
entretenu
##tels
##BOURG
confirmé
close
prévue
JAN
Avignon
aveugle
chaussures
QUE
OS
renvoyée
##omes
représentée
##ressistes
Court
alién
dévoué
Femmes
Bir
uue
àM
respi
autrichienne
Agriculture
bleue
Boi
centenaire
Breton
Mademoiselle
excursion
##ENE
443
arg
septe
surn
occasions
annoncée
omb
offrait
soc
tirages
##éli
VILL
plateau
Pacific
##raisons
AUTOM
468
BEAU
CRO
augmente
##uées
##rus
bie
frater
micro
attachés
Cru
aperçoit
Humanité
uii
verb
471
up
parcouru
##uier
neuvième
avoués
siég
Consolidés
Décembre
Roland
excellentes
austro
vus
PAGE
##CA
##MN
samedis
obj
LOC
pons
huissier
lauré
nard
##JOUR
Quat
Ecr
Philipp
foin
197
menacé
##éno
##érosité
Dém
##osti
##etter
438
diffici
##VILLE
ier
triompher
810
CONTRE
bit
prendront
##ftt
lyrique
poussée
turcs
coïn
##iiiiiiiiiiiiiiii
Lune
##rences
##roitement
présentes
vents
secrè
Carré
416
209
profi
TOUT
bénéficier
EP
convocation
prochaines
##rès
scep
jouera
##adt
explic
confor
Situation
Nombre
##istan
parois
apercevoir
voisines
392
revision
Rochelle
indépendant
##ciennes
tristesse
admet
diffi
qualifi
Pères
légers
fraîche
duits
complais
Mous
Alban
##DEAUX
770
perquisition
aui
conversion
mené
Cla
EAU
Forges
Bapt
448
mété
MOR
##nai
##beil
patriotes
Adresser
déplacement
tice
Berg
##auld
##ractions
fournis
variations
alliées
gendarme
555
ati
Bank
##venu
##iège
##qne
loyauté
730
Saxe
denrées
hostile
Ain
Lebrun
apparte
CIN
organisa
contribuer
légères
py
Om
Ko
briser
Lefèvre
légende
motoc
##ser
comprends
trè
décoré
dats
sité
permanent
inférieure
marchandise
Bourgogne
signa
Cui
amortissement
souhaiter
1857
raid
232
écrie
409
batterie
##cation
final
étonné
CHA
adjud
succursales
paraî
continuera
Dl
ennemie
unie
iie
Ari
entraînement
FINAN
tissu
breuses
372
rier
CHAMBRE
Ct
Big
##uo
##bonn
posées
modifié
##uns
taxi
hou
880
figurent
Massenet
plénipotenti
repose
CY
gib
Léopold
Fournier
511
enchères
dispon
reconnue
##bilité
Chà
commentaires
##LIN
##RIC
indispensables
SOUS
future
Bét
romain
reaux
pareilles
VIC
excuse
##irt
mobiles
Proch
serve
Gut
##sé
entendait
refusa
##éens
douloureux
deviennent
Chamberlain
aV
couverte
qt
sommet
SOI
locomo
##stone
##iges
Roman
précaution
retomb
accroissement
cepen
protesté
##agog
chaise
iw
nc
Brieuc
brume
poil
coulé
Vélo
516
##rol
##qe
évacuation
frappa
manquait
contré
passants
1868
MARSEILLE
exil
##TON
##drome
mô
toiles
##aus
##ube
Courses
roc
extrémité
##élé
cations
coh
meublé
Douai
couvre
393
Arrivages
escadron
chic
##arque
tî
indigène
THÉ
Prog
écriture
capitaines
##lne
##DACTION
hur
surmont
suivis
##ardis
gour
compté
hôtes
délicieuse
Ferrand
##ourent
Plata
subord
sanctions
parven
Mire
##itera
BUL
faciles
iP
##ural
Deuxième
suivies
Guit
Villeneuve
italiennes
dixième
décédée
titulaire
argument
##21
poud
acquérir
orné
ottoman
aérop
demeur
fureur
regarda
ardente
attrait
ambassadeurs
procède
rite
hypothèque
Travaux
races
##issez
Munich
cercueil
notam
TU
Rad
##ANTI
1850
bill
romaine
Fai
changements
dépendances
reu
songé
##querie
torpilleur
privées
##ûi
naient
formelle
Lots
jf
3i
instituteur
vl
Henrie
transformation
##iche
remit
Gram
devenus
intense
Geneviève
suivit
marier
recevons
##miers
instruments
conféd
Poitiers
431
couloirs
##ords
baie
Sang
commettre
nf
Seigneur
municipales
football
connaissances
##ISME
accumul
##cnt
lat
crée
travaillent
Cn
détes
451
830
barrière
chantier
Sauv
introduire
commandé
Bourget
Théodore
version
pà
rarement
VOY
Haussmann
tyran
Lud
LL
675
regardait
##vert
armistice
avancer
confusion
##NS
singulièrement
387
Ie
TEM
Semaine
##tiaux
605
iB
peaux
##anée
suivait
nôtres
éloigné
interprètes
221
##fontein
times
##vv
##orent
##26
Vivienne
chœurs
succéd
Carlo
Bientôt
233
cj
gro
expliqué
Soleil
çe
délits
##ISTES
réponses
etre
404
##ried
Anna
Concerts
Sie
inférieur
matériels
hang
Souvenir
mél
priorité
Ministre
faill
canards
Andal
INDUSTRI
plong
Galles
Mulhouse
##Se
agréer
pleinement
Blé
##ernelle
lâche
Tait
##orables
Bati
gêne
SÉ
obéir
jés
appels
doigt
assassiné
Gul
##ZE
##heurs
vétér
réclament
##liè
aventures
lieutenants
arrangement
plaque
Barbe
AJ
désordres
effond
réflexion
##KI
flott
absent
mandats
groupement
##terait
discuté
maçonn
MAU
duite
contingent
##téri
Souver
##lac
ej
tamment
moind
chagrin
forcer
exemplaires
désira
venger
Outre
FAB
constata
propo
Parle
photographie
écoute
paisible
514
Legrand
##loc
combattu
##cii
##bus
Ambigu
##ABL
##oj
comparaison
##seigneur
##isi
cotte
##OE
pigeons
##bés
OBLIGATIONS
tamb
Australie
examens
##ropole
cambriole
fuir
arrivées
divorce
pardon
évidence
Moselle
use
491
Lyrique
##via
##beau
figur
cheminée
496
entrepris
Guérin
iri
Officiel
690
SEINE
##ondes
bleus
prussien
violences
##onnements
vifs
centr
JOUV
tine
##cevoir
compositeur
décoration
Considérant
313
Hiver
vard
maigre
singulier
Bron
fraîcheur
##cot
Alsa
mouch
Maire
Belge
223
Sarre
quais
Boc
##ification
Collège
cles
214
prévues
deaux
inten
Sucres
monuments
postale
disposer
prenez
Séville
parvint
échappé
laïque
tuelle
desquelles
Allema
arrondisse
OCCAS
sil
382
461
Pens
311
Roosevelt
votes
îr
ARRI
##orts
##rate
rug
boucher
MUS
roue
mare
INF
Rentes
nuits
318
3o
jar
communiquer
Pich
Robinson
##uny
231
insister
427
tirés
Retour
signifie
possédait
sique
Joli
iJ
incontestable
4a
portion
prohib
seigle
noy
riant
Moulins
Renée
##ordi
caché
tourisme
crê
vêt
COMPAGN
Ble
##âi
##phes
intimité
étonner
##USE
trembl
302
378
Aube
contribuables
réseaux
excel
Faut
saisis
##âr
conventions
récents
gère
bais
européen
habituelle
souffrance
meme
PRÉSID
499
vivent
Jar
nerfs
pêcheurs
nœ
devez
rompu
comptent
organisateurs
emploie
Bœu
Loiret
MARS
##fj
relâche
oes
mos
inculpés
risques
Gn
hypothèse
FIGARO
bœuf
TOUTES
conquis
cavaliers
générosité
original
législatif
interrompu
PETITES
jon
légumes
poissons
##ya
DERN
littéraires
bolche
concer
rejoint
196
posséder
SUC
murmura
armements
contenir
testament
sucres
cherchent
##rira
Ayres
gendre
##ommé
emparer
476
bagages
buste
545
Main
Faites
##orée
avancement
queue
veur
frégate
cret
entraîne
##mbler
Argentine
##WW
Dernière
##aissement
madem
fg
mune
véritablement
MEN
##AME
trouverait
Chat
mexic
Danse
##COLE
nières
stocks
trouverez
363
Vendôme
Cinéma
ferrée
rémun
gés
réplique
épouser
Demandez
allés
##gor
organi
##ifl
##izième
stip
OC
renferme
ennemies
237
mers
mq
bai
trottoir
Mour
ryth
##BR
appuyer
intéressé
CHAP
soigneusement
reconst
conservation
soumises
proph
franchir
odieux
cuirassé
cheminots
Pos
Anjou
Impéri
Boss
pj
565
##inier
VOIT
##issantes
paraissant
ENTRE
740
aimée
suspension
d®
cruelle
Chantilly
achè
déchaî
##iil
Aig
Voyez
474
résolue
##onnées
##AMES
rii
verdict
cherchait
308
422
comptable
nérale
difficilement
influen
VAL
relief
quad
Veuillez
discu
Joy
##cade
BAS
variés
solides
##ransigeant
Ecoles
tle
Arch
Symphonie
441
polé
##Il
317
Transatlantique
exem
profondeur
appartenait
##Bt
fraude
zéro
ADMINISTRATION
tendent
cria
##mées
##mités
1862
Charl
Flandre
##gera
démoli
mélange
constante
impérie
persiste
##cieusement
ladite
borne
solutions
Villa
arma
récompens
ROY
blesse
##fis
CHATE
vieillards
PUBLIC
enlève
exquise
Haïti
obi
cités
##fti
lain
tribus
##bou
##pli
édifice
auxiliaire
écono
montrant
réorganisation
saine
Kn
NOTRE
##àu
CENTI
voudraient
##fte
PRESSE
##bat
##ccès
##vois
nicip
proclamé
forter
rédigé
catalogue
retirés
##ënt
##ignes
menée
Côtes
Nature
##ereau
roux
partager
Mend
distribué
poème
disposés
Liver
fron
raconter
##emens
perspective
avè
circuit
fâcheux
820
Jj
##apest
Total
##erson
LUNDI
Immeu
portugais
Puisque
423
##onique
##86
LOT
facteur
associer
Communes
Ruhr
Gauthier
Bass
Blo
Lefe
PRIN
Clair
vivantes
récon
dj
Pla
1872
##SO
FRANCO
RAP
vides
Mit
imposé
SY
jouait
emporte
perpétuel
##ENTS
##ISES
litique
##erd
Tap
animation
lj
##TIF
patrou
fréqu
dater
durable
stable
Dét
respond
ordi
##imir
produisent
635
Henriette
Croy
Nu
exécutés
farines
moindres
existant
inac
boulang
tuée
caoutchouc
444
armement
enrich
ministériel
##illant
fines
délais
##geurs
##onnant
empressement
Catalogue
admirablement
367
Foncière
internationales
Indre
protoc
##venir
agen
Vot
Partout
duction
466
producteurs
thermomètre
tuellement
234
animé
abî
Romain
violents
volant
##oirie
mandes
irrés
Cous
imagine
##ida
CIR
##otage
sache
Laffitte
déplorable
acquise
tienne
##ongroise
surveiller
moin
comprise
##Bi
agitée
875
légitimes
397
occidentale
MARCHE
étoile
Lun
rope
481
pria
Bavière
fléchi
domi
demoiselle
capt
486
placées
Berthe
nons
Provin
malheu
vogue
vainement
Fir
SPECTACLES
supplémentaires
Rém
troubler
vengeance
ANCI
situés
transportés
foul
fec
Immédi
faction
débarrasser
foyers
##CK
répondant
Pey
renvoyer
RET
permette
joyeuse
coalition
Fres
398
divi
ciale
requ
receveur
urgent
fév
sortait
##onnent
sauraient
436
fréquemment
sape
mini
étudiant
insi
484
##èe
secrète
ît
BLAN
figurer
rique
pui
gnes
Led
##vain
##agny
##MAND
Rapha
élévation
hospice
élarg
caution
##utt
Meaux
Wi
furieux
RES
##fll
Jeux
fauss
419
achète
jets
naturelles
nan
##ériel
professionnel
souhaite
##kl
souveraineté
serbe
GO
violation
##ologiques
Copper
Polonais
##champs
contag
##hamp
arbitre
##usson
##own
couverture
improvis
ruban
cussion
chauffage
crie
décidément
ardent
Crois
Morin
éclairer
219
neufs
path
##cro
Hart
prétendent
garantir
trentaine
avisé
mn
déri
337
vention
EXPOSITION
cession
##ionnage
##At
grise
Ardennes
concurrent
brûlé
LOUER
croyant
##obus
journalier
##RIL
##bots
227
rées
Valence
Afin
383
nécessairement
interruption
Francs
susceptibles
##tei
nouveautés
##astes
réglé
inconvénient
DIRE
medi
##abil
essentiellement
##êe
gation
Rai
##utile
entraîné
Schneider
lée
##ADI
Dumont
489
Alexandrie
##oisses
##urb
nuages
tobre
OCT
libération
mentation
377
LIV
demeu
Ita
fî
Réf
439
Maxime
internationaux
##ockey
Masson
électorales
lière
Ribot
Claire
diction
aumô
matches
Fleury
fies
##alons
Ia
Eli
envois
COMPTANT
marty
traverse
achevé
Proc
ouvrira
affreux
exactitude
bénédiction
renseignemens
soulevé
##vn
ACTIONS
Fabre
spirituel
##gy
présidait
croi
585
SONT
tontes
JOU
chaises
332
px
souve
Danube
Novembre
menuis
métrés
cement
baign
Moh
pect
Leroux
accessoires
priv
assassins
##vllle
mondiale
asseoir
éblou
tourment
CHAMP
possèdent
désirs
Som
disputer
Caus
Ség
pourvoir
Engh
Bén
##agères
Peuple
tp
SOCIE
restauration
incer
Trin
tribunes
timb
iô
taureaux
##position
373
avancée
multipli
Trou
glaces
##abeth
cial
soyez
jouit
HEURES
perdus
poursuivent
romans
voler
décem
pra
##llet
pressent
##tils
prétendre
Part
importation
japonaise
convaincre
mp
intéresser
ài
522
régional
nationalistes
lence
récipr
Kre
Bai
##JI
sins
préoccupations
mesd
souriant
administrateurs
biz
Elis
pir
fermés
##ériennes
vaisseaux
étiez
kilomètre
plonge
lieues
livraisons
persécu
Santa
Audi
rapporter
consolid
remarquait
intern
##âs
ditions
défav
##iot
entends
hésite
Simone
condamn
originaire
dessein
eri
agriculteurs
nœud
préci
Bastille
BB
plaisant
aiment
##ELL
##raud
##QUI
meuble
pouf
contente
comprenait
portera
inquiétudes
ili
allum
suéd
Paille
SES
poussière
matelot
coins
Sk
Bran
##sements
substance
déclarée
Représent
impatience
428
âe
JOUVENCE
Sos
condamner
résultant
commode
HU
##lenge
courtois
Sf
méridion
résign
hésiter
produisit
##quelin
supplémentaire
manie
galop
joign
brise
Ot
para
Conn
##chot
Lè
391
##ontre
##ollet
communales
promptement
vinrent
##MAR
Grecs
DRA
##ANE
bénéfici
Orph
chimiques
479
honorables
Villette
daus
##uité
répandu
jolis
Huit
Gam
204
Ate
site
##oto
##lave
Gan
Féd
eb
DEL
préféré
Quint
##march
étoiles
Gaud
laissée
050
soupir
décors
##cue
##ocks
inquie
tragédie
Miche
contribution
##lanc
peloton
grecque
pénal
ny
facultés
##BLES
appliquée
arsenal
temple
ivresse
aue
##rements
perç
achever
Lacroix
fii
Cort
rog
##ould
dieux
profess
détresse
304
amateur
Dul
CHEZ
Anciens
entreprendre
dun
Seule
Goun
raux
CONSE
mourut
convenu
##cf
Liège
Pren
convenable
lA
##oû
##pti
stade
Celte
favori
Zola
renon
personnelles
requête
clans
Ecosse
Abel
tenaient
douz
##rins
dégr
860
croiseurs
Tir
remèdes
imprudence
foncières
Berth
transformer
franç
##Tl
Pig
polonaise
paraîtra
Tin
aven
profondes
CENTIMES
autel
sincèrement
396
anx
Budapest
1939
verrons
mutilés
chapitres
assistants
Mariage
##UITS
##elots
miracle
écha
straté
sine
recueillis
MAD
équivo
338
##cq
##ématique
456
uo
##CRI
inconvénients
##ift
éri
##olée
vaudeville
pensent
##faction
##êté
souscripteurs
JUILLET
étin
anarchistes
dépou
produites
tourné
238
gém
Argentin
870
dition
PLACE
Arras
vés
sollicitude
donneront
prudent
##laud
soy
##hée
MARCHÉ
##uor
régie
flots
vigil
##champ
Grav
cong
##win
rne
liés
sième
mà
306
autorise
donnerait
prolonger
are
##JL
Hom
##émont
##oliques
Dôme
orth
Bet
réouverture
Andr
##xt
494
##Ot
bourgeoisie
##71
attenti
Chaussée
déclarait
840
Mid
scientifiques
votants
Nîmes
exhib
##rennes
446
Cai
sances
contradict
sph
388
contract
établies
concit
##ADE
Tom
##Oi
fatigu
##outs
épais
##JOURD
hérit
chapeaux
SEC
##dictions
##ffer
Boud
posses
Inscrits
débord
èst
indiquant
ATT
CAB
centi
sauvegard
##mént
dommage
pleines
lei
Mart
exemplaire
scell
exploit
##nois
branche
stricte
Renseignements
arron
complicité
tionnaires
Résultats
sym
craintes
alb
##kh
soumission
##vide
##CLE
##lème
révélé
##uro
caporal
Bref
##aques
hautement
##assement
Plais
durent
##23
Anat
missaire
pensez
tenta
381
mins
##Ii
verve
Saëns
##geon
précieuse
chaire
remédi
interpré
1874
tarder
généreuse
SAMEDI
##ohe
prémat
##atisme
##KT
Huile
antiqu
seigneur
franchement
devenait
défaill
regretter
##ïa
distribuer
éclatante
marquait
##asserie
TERRA
tional
renforts
sabre
commençait
sitôt
##emp
répliqua
défen
Galli
dramatiques
arrange
diamants
##ohen
GRANDS
Tokio
Mons
Raff
##vill
725
434
Alen
Mira
##oum
Sout
attribue
angoisse
ENF
COMPAGNIE
humble
ien
Walde
Cécile
recevront
##stre
innombrables
ignorance
massac
grille
appe
Ense
##reries
Pros
ENV
inspection
créa
464
COT
##chnique
■■■■
Saïd
aé
SAV
rapprochement
##alla
lemagne
Aul
##rob
sch
télégrammes
Sceaux
BS
331
anarchie
milliard
défini
##IEL
Aris
##oline
chèque
AUJOURD
##elier
outillage
convives
âgés
FAIT
##lss
iti
acclamations
partement
causerie
##Jl
rall
316
intimes
inspirer
Laus
Mâ
ALG
TIT
tii
conflits
modération
272
habitait
assorti
musi
ties
tives
acquitté
matérielle
adapt
juifs
touristes
MARDI
chêne
parallè
transportée
obtint
##vidence
##vec
##iin
ANGL
partisan
boulanger
aidé
AUTRI
tuy
constatations
noctur
ministères
292
montrait
226
engr
silh
estimé
laboratoire
##ardes
inconnue
Lecl
dirigés
tache
rante
renoncé
continuation
Charle
JEUDI
demeurer
ARGENT
gence
Bod
421
##ULT
ETAT
emplacement
##VIER
##ibal
Assistance
loyers
littoral
laissez
què
Dominique
Qn
ravi
##ailler
proprié
futurs
##anon
##ilde
soif
théories
Alexis
454
revers
##rick
##Ss
box
météor
polit
##llon
ingé
autrichiens
injures
##cup
exquis
supprimé
EU
sorties
357
pouvais
##ums
exportations
Consult
prends
##atismes
IB
##ero
##inon
orches
évolu
sévères
tifs
partants
payables
analys
incapable
compromettre
approuver
mange
##holm
Andrée
risquer
dedans
énergiques
cérémonies
S5
informe
Glad
Aubert
mademoiselle
enga
docteurs
Yonne
flag
nité
loup
possi
459
##osa
bienveillance
##dière
allume
241
##cement
inviter
soigner
371
amortissable
##abi
Noir
guerres
Monce
tamp
servait
restes
célébrées
administratif
Bak
Xavier
##ilet
Romains
##quettes
livret
Abd
grou
prolétariat
neutres
##ièr
personnellement
films
médiocre
Bous
munici
775
travaillant
##bury
Pad
percep
pompe
étre
Vidal
concentration
pèlerinage
sacrée
dévoués
##icales
bienvenue
Feuilleton
595
EM
Produit
grain
émue
indulg
##ory
##ENNES
obscur
##urt
SOURY
Chili
irrésis
Nov
ministration
minutie
nia
porti
obligée
##93
esqu
amène
extraits
scrupule
assem
Zur
C0
symphon
mique
adjudant
accordées
##gg
jetée
Pt
Châtelet
##ionnés
Thierry
inventeur
représenta
##iscop
quittant
provisoirement
OL
Perse
parles
Foncières
dd
##amo
Gel
mann
##érante
gracieux
Brig
Jé
252
sapeurs
jé
##ROP
##nir
relevée
Foch
inég
éru
##RESP
##amation
##rancs
Colon
Lach
limité
autoriser
croir
Bah
Robin
images
résident
richesses
encomb
baï
##fond
éclairé
##onome
##81
semblaient
##lète
##ibilité
##lect
##83
verrez
golfe
Bomb
lumières
réquisitoire
Dn
accueillie
réussite
actualité
éloges
um
##BER
versements
Ord
britan
convoqué
admirables
dépasser
imaginer
Casimir
JEAN
insignifi
viendront
responsables
impé
##zen
##alli
ers
bey
inco
mince
comprennent
vainqueurs
exercé
regretté
SOL
##dité
PEU
Contr
types
##îî
Porto
alarme
825
balance
##C0
ïï
unir
contenter
##mith
Abb
362
Morl
##agi
Opp
alsa
sj
Bey
##LOG
verd
locataire
coloris
humaines
##ILLES
FI
##ordre
plaire
##cesseurs
REG
Trente
Carn
imprimé
puté
Beauvais
mécaniciens
242
##IENNE
ayez
287
munis
insisté
math
Ans
##oya
##atr
1853
délivrer
##ilib
Daladier
##arisme
capacité
Finan
Wagram
chase
##lel
iH
Fez
lingerie
SEU
entendus
réalisations
##Ol
boissons
449
conspi
agences
BAL
entrés
décerné
monétaire
zou
discrétion
DÉBATS
##etti
gueur
Christian
hongroise
affich
##BERT
oom
assimil
GROS
236
Baptiste
Lamartine
Lès
Comptes
rj
##mire
adjoints
Syndicats
considérablement
Oud
293
amusant
##VA
VIII
passées
##MON
soupçons
gages
cii
FOUR
impru
LÉ
Région
##ntre
Ron
Amis
livrée
prononcées
jalousie
##vol
publiées
##lane
##BL
préparée
tagne
bulletins
entendent
Tt
Revenu
nj
cirque
vet
np
intéri
affaibl
Vaillant
novem
fière
rentrant
##oust
iso
Buff
##iefs
voulais
brillantes
actives
de3
Lil
##ibes
376
##énée
éclater
##arsis
cellule
roug
orge
##inot
spirituelle
Quelque
chemise
Schw
inquiète
aérien
athlé
Occ
##vières
hâter
céréales
1®
enregistré
majeure
regrettable
caves
violonce
capitalistes
enj
nistration
##anghaï
lampes
porcel
frappés
Labor
qii
acceptée
dissimuler
##cti
224
malheurs
programmes
##BLE
374
iil
subli
voudront
Bernhardt
négo
7°
lady
qü
sants
demandez
Fay
reproduire
##ilique
district
naît
SOCIETE
Illus
352
Sacré
feraient
OH
##ERA
Gervais
encourager
miner
SOU
envoya
##garde
353
##carest
sic
repousse
postaux
Anonyme
reconnus
dier
provoque
organisées
Ves
piété
asphy
autr
suspendu
compensation
##jets
ignorer
consentir
génération
profité
##lées
Disc
Carmen
IU
Informations
328
thème
2o
soirées
crème
Gagné
criminel
dépour
247
envoyées
prenne
##aillon
envisage
grâces
hiér
##rille
hospital
policiers
publiquement
reproduis
aU
poches
impres
signification
Enfant
pourrais
pag
##voc
rieuse
disposi
ténor
gée
Ecur
##yère
Avis
opti
Pruss
aéronautique
prendrait
##Vi
314
immin
hésitation
Raphaël
adoptés
bilité
sauvage
nominal
détaché
##dié
##ylo
obscurité
lii
élire
tombeau
Princes
dormir
Standard
Lass
Gomme
rensei
prélè
chevel
Manuel
##oes
tann
Nouveautés
Alliance
urg
##ycl
acteurs
âu
NEU
##éen
OCTOB
get
##fli
accompagnés
choléra
tranquillement
confirmer
véhicule
ECL
reparti
790
veuille
abon
étonnant
Bucarest
##anth
Maxim
urne
iui
##aisses
informés
malaise
##ribe
baromètre
égo
##fir
commencée
##leg
469
pale
clas
##ôre
récoltes
accusations
CAF
cuirassés
projeté
châti
323
simil
Tarn
atteintes
guér
assurent
930
890
réalisée
BORDEAUX
Heureusement
prononça
insin
convales
fanf
Lens
possib
matelots
plumes
prose
cabinets
regagner
boue
Brisson
Motte
253
##ILE
combinaisons
dies
puissants
étud
terie
##aca
##misme
recherché
amiable
solennité
Hérault
satisfaisante
368
Moy
exceptionnel
eet
297
conscien
##zz
prorog
dog
uh
Sofia
divine
##légi
chas
souter
dredi
certificats
Brune
présentera
soutenus
condui
cinémat
##ophile
professionnelle
##USES
statu
naval
condamnée
342
##onnerie
attributions
aspir
##ensité
Quimper
##telle
Cris
##oî
appropri
##qû
ferons
berté
Kal
Jos
compartiment
adieu
formules
semblé
Pent
évanou
scolaires
267
##nière
fonte
##ella
leu
analogues
Dernier
Perret
réélu
Aud
phénomène
réint
répart
inconnus
Eugénie
escort
##uth
fuy
consommateurs
chor
##ULES
##aui
mets
282
cains
Phi
démocrates
Voulez
##abond
PHAR
Princesse
##aci
##str
nas
##FR
##énade
boy
distingués
payable
322
pital
Entrée
Bard
##AUT
parap
fà
appréciation
protestant
vendeur
vants
remerciements
examine
constituée
Jolie
gde
Deau
Lucie
attacher
Reichs
ees
notable
MIDI
##vai
broy
indéfin
Sébastien
artistiques
abandonne
##endue
tirant
interview
lp
améliorations
MILL
##org
##ùx
Street
tunis
corporation
Commis
investi
maçon
Isab
qni
##quart
Tex
aéro
chauffeurs
##ena
##alne
i5
TAB
averti
reconnaissant
ticle
CAL
##enr
Nom
Join
métiers
boulevers
exh
pondant
blo
claré
pèse
Jer
solennel
Mathur
cus
ELECT
Compte
culp
préli
##ùi
libraire
Sauveur
le3
263
éloigner
Gout
trouvèrent
améri
remercié
septem
inauguré
décisive
##arpe
rêver
Rennais
Lô
tranchée
##mbles
##azet
Ministère
mitrailleuses
gymnastique
altern
ception
358
##ousses
##ilien
alerte
libéré
tam
accompagner
champions
CONSEIL
usages
ffi
reprocher
##audes
apostolique
Guille
fierté
Gibral
Soit
répondait
efforce
ér
MAGASINS
Canadi
émouvante
contrairement
Foire
moulin
jure
patr
confortable
Pons
##Jt
243
GAL
consultation
Drag
originale
##oro
##îch
collèges
Salut
##credis
Croissant
importations
square
sentit
bière
def
épi
signific
CORRESP
##ént
itinéraire
térêt
rA
##time
Arabes
férence
lS
finesse
avers
336
356
paquets
##opp
Veuve
étapes
##veux
cherchant
rp
dee
nonc
Allez
élevage
Lourdes
Racing
expulsion
chasser
constip
pires
levard
justi
##ûtes
bestiaux
évid
##VAL
tence
foncière
steamer
##fï
départemental
ite
##jol
cain
lç
phe
botte
MILIT
##hiop
habitans
Finlande
##agnac
Elisabeth
célébrée
Vois
gratitude
tirailleurs
##zan
coffre
Weber
CM
administrations
283
plaidoirie
3®
SOIR
399
franchi
FRA
Bône
##elais
Montreuil
##jus
poigne
congrégations
européens
hale
Bataille
tite
ajournement
OCTOBRE
##yé
disciplin
##SEIGNE
Eff
4i
##elé
Communi
fatale
CHER
Parla
offrant
uné
fs
haie
SON
Lanc
##HT
émoi
Wat
##antin
coloniales
Bibliothèque
aille
réfléchir
étonnement
##gosl
agens
galeries
Wes
##endus
offertes
barreau
censure
Durant
inclus
nuance
##avis
ples
situations
Ail
##fT
309
suffira
tc
Dépôts
reviend
Assur
Samt
concitoyens
écrites
Sport
circuler
from
Sarr
Hano
domination
Gla
271
demandées
prolongée
climat
révélations
##icots
##ridge
327
426
291
##rion
eit
about
361
mig
compre
magistrature
brouillard
caractér
accompa
##roles
budgets
##tillon
Males
##ORTS
montait
##opsie
sentent
mortuaire
IMMEUB
attire
##assant
neurs
Bourd
##acée
ADJU
formalités
765
changes
reconstitu
statuer
Rocher
mage
directions
##ensif
lav
vraisemblablement
DOM
BUREAUX
288
clame
présider
##ciale
Compa
fauteuils
Rép
volontés
##hétique
levant
cipal
musical
soulève
titulaires
semestre
Vén
##assins
321
oette
Vitré
239
Beurre
répétitions
couché
cantons
affli
1849
enseign
dollar
##peu
Diable
manifesta
vise
Mahon
Capital
épid
257
UR
##avan
##OK
inspiration
engagées
Bagn
cole
noyer
combus
intelligent
simultan
remédier
Pit
##rirent
til
arbitraire
désin
TAR
varie
277
découvertes
##cla
by
dieu
##kel
méch
281
Joséphine
##np
SEPTE
##ula
iU
connaissez
serions
incom
Ka
nois
Rog
avants
devine
égar
servie
366
##mistes
ajoutait
##elly
tension
dro
canot
##ires
Amicale
chaussées
battus
##ôl
resser
lli
instinct
Avez
##RESS
obliger
trio
accomplis
communauté
NEW
oiseau
Tang
##Ci
portaient
Courbe
continuait
mule
sugges
rappelant
autobus
tact
Gér
amicale
variées
Lausanne
##ARDIN
habitués
394
Rein
sûrs
lande
transmettre
Section
maigres
renouvelle
plè
##erve
hollandais
hit
##PI
##onnerre
composent
préfère
##96
Programme
##guet
##lm
Olympia
indifférence
criant
Bouffes
tennis
##aps
fermement
##éan
différente
éclatant
dirigeant
Automobile
reusement
départs
##ITU
vigoureux
conçue
C°
pistolet
accroître
filet
écrivit
##mains
bronch
boucherie
retra
Iles
Bid
fortifications
opérées
rentra
poussa
parvenus
souffrent
CORRESPOND
pent
##oria
##ERTS
mouton
521
bizarre
##Ch
affront
TJ
GUERRE
coopération
980
Circul
##dés
modestes
tances
##culose
Malte
méritent
confront
exi
##ièces
fiancée
raisonnable
contradiction
Gounod
signalés
aborder
nô
bourses
##cinet
arrêtées
Stockholm
appellent
dépouille
rêts
ECH
Banq
battent
recond
Rent
arrivages
##ulations
262
1851
classiques
PARTICUL
Ches
apportées
mans
##acteur
sociétaires
Liverpool
amies
affaibli
altitude
##fS
découp
réintég
glorieuse
courut
##érique
bassade
éloquent
UL
nourr
protocole
Rédaction
domaines
386
teu
American
ajoutant
proposée
bals
##ÉRALE
ace
vendue
Matinée
regardant
fixées
##olly
hostiles
##GI
##xtes
sei
278
Corbeil
Hum
variété
mystérieuse
Fu
fermier
sas
regagn
labeur
aca
##rà
##ùe
huitaine
tille
##EE
##atrices
félicité
Spor
##RAGE
mêlée
##ographes
Mà
##clar
reconnut
parlons
serre
veuves
pensons
affirmation
Charpentier
Mouss
JANVIER
lom
##ueusement
##inn
acci
HAVRE
catho
Pern
foud
Kou
Trip
##blet
Pantin
Lant
reposer
Lh
Rivière
plaf
Ment
Berli
##acons
##ohn
Barthé
Ges
IW
Jam
bec
Gru
dirigea
dessert
credi
dimen
véhicules
hospit
déve
iront
##rogé
interprété
429
JUIN
borner
Levallois
##lng
##oter
ues
tournoi
formations
##22
attendaient
expéditions
doré
##ternité
##umens
##iq
##ocie
##alem
carross
résume
351
sculpteur
##ENTE
échappe
##lore
pavé
Wh
D°
poursuivant
éclaire
imprimeur
Ira
##lai
dia
dépression
##azar
Espagnols
261
##so
indemnités
Doumergue
prouvent
bril
Prière
##TER
vib
PAUL
loué
##sus
Gaîté
emball
Pink
miné
maïs
sié
tranche
fabriques
##alen
Comtesse
##ABLES
##On
paysage
##ima
courante
injuste
précipit
calmer
fli
GL
envahi
##olt
réveil
##wy
abandonnée
promu
éclats
##ouillet
abrit
##ken
Départements
canne
pénètre
##ams
excepté
décrit
##alion
##TIT
donnons
tantes
disputé
pii
715
##ür
Gaillard
avo
389
préparent
248
remplie
Enghien
424
ennuy
débuté
##cat
##isement
Didier
hauteurs
nièce
libérées
rès
##cor
Ars
crav
vw
##dro
Affaire
épuisé
Pharmacies
##ophie
cruel
Lefebvre
în
Direction
vec
Age
romant
MERCRE
Fore
Meunier
collective
Théâ
Maub
amir
duo
descendit
objections
auxiliaires
effectuée
AA
solidité
misères
##CLES
##ntes
PROV
travaillait
brés
Charlotte
domicilié
invis
jouent
officieux
encaisse
riz
crêpe
endomm
TUR
crétaire
amusante
##flt
aisé
concili
Loy
desser
wv
nut
354
spécialité
unanimes
519
Gibraltar
AVRIL
rà
298
Maritimes
##uait
Sénég
18S
523
camps
réconc
boîtes
PRÉSIDENT
##rép
conduisait
Gont
##lei
hostilité
Harm
Docks
Bav
##sp
##ish
815
décidés
910
Citro
##apart
répandre
##îte
##aries
Aéro
concord
##tiges
##jug
FERME
ironie
##enhague
déposées
pàr
procure
vertes
conféren
pié
##oler
irait
##XE
nourri
hypothéc
Balzac
courageux
##azz
Flam
avoit
EAUX
##lil
Bn
Etudes
sat
South
royalistes
343
Vér
bâton
NOUVELLE
dérobé
ker
##SON
appos
##çh
##LEMENT
lee
contraires
##illement
dirigées
coeur
épidémie
soulever
##aiit
jupe
Bus
Métaux
eom
classé
Famille
Sultan
Nég
274
you
décern
Centrale
Trocad
lueur
Françoise
partition
proclamer
moire
Urb
##arit
Cen
Cadet
revêtu
pureté
##kir
savon
énum
334
supprim
THÉÂ
sacrifier
mées
adresses
GÉNÉR
KO
herbe
funeste
insuffisance
soustraire
berg
##rimé
Deuts
lage
poursuivis
allocation
735
pâte
test
durer
##uta
Grég
##kt
##aissant
devise
incessamment
machin
SEPTEMBRE
émettre
##gnol
##ppes
Waldeck
verses
SUD
##çante
supprime
Comptant
vérifier
##rend
armoire
affectés
Mog
##IU
##iT
max
##uités
huss
nécessi
Asnières
éventualité
Von
cée
273
revêt
##CB
Pris
provoc
trimestre
caine
réserver
préval
entrait
##aïs
FÉ
totalement
sportif
##card
##romp
PB
##ouement
militants
innocence
rêves
PIER
métro
Paradis
TÉLÉPH
##éa
##dits
##ilit
troublé
temporaire
##icr
##autés
jd
distinguer
notice
octo
##mor
colza
vôtre
347
244
##zier
deM
déchir
oir
##glie
Fol
obliga
##idation
Sà
impli
pantalon
relâ
illusions
AGENCE
Lois
sements
##oiis
coqu
##rouge
tS
hésit
lign
masque
Fonc
gracieuse
allées
tourna
mb
marée
##aun
coff
MOBIL
##chel
348
Ea
685
665
élevait
339
DIVERSES
contrats
Sent
écrasé
malle
Copenhague
md
réfor
moralité
##cera
gie
##itif
##RÈS
##non
préoccupation
Jf
fondament
vt
##ailleur
ROM
gants
isolé
##Paris
bû
forcée
##aisie
bienfaits
perception
organisés
Racine
##PTION
écouté
teaux
##VICE
##gf
229
##érailles
##PES
Antoinette
##raines
##DR
VENDREDI
##îa
adressa
ën
juridiction
Belleville
pleurer
breveté
Wa
gigantes
##assées
Esprit
Carlos
suffirait
blonde
OTT
lette
Préfecture
Poitou
gratuites
Mining
menaçant
complications
Américain
yacht
épouvantable
Ire
montent
sf
Pir
calculs
##meut
accomplie
européennes
pèche
##TB
représentés
##illac
sys
accout
interdire
viendrait
contro
##dule
corri
##lau
harmon
proposi
Inutile
virtu
Providence
Aristide
prou
papa
Vaugirard
fabricants
arrêts
fondement
appuyé
ornée
charre
transatlantique
379
roubles
##kans
##lly
Concorde
dose
##locu
cyclistes
Chateau
9°
sier
##isseau
impasse
intestin
verres
Indochine
réclamation
pratiquer
compagne
dront
MERCREDI
276
Inv
EI
intérieures
##rants
remboursé
##zard
Mère
consacre
tonte
##tival
dispu
Vel
##clos
sembla
##imer
réservées
Ost
359
désor
Valse
TS
spécialistes
##plo
Monnaie
approuve
did
porc
COLON
705
introduction
##cienne
##mets
##ERM
renouvelé
Eng
disparaît
645
décomp
détenus
démontre
Cuis
ond
survenu
tég
Epin
Mig
Venez
chars
déport
mensonge
##ertions
Bue
655
Trai
pilotes
##col
##arez
progression
condamnations
##alr
##âteaux
##DA
essaya
jardinier
vantes
##nthe
héritage
IMPORT
couturière
plaisirs
çn
chemis
Tess
fonctionne
quasi
■s
##xc
exploits
barque
AOUT
dictature
256
menacée
Vt
répété
musicien
Arrivée
cavalier
pénit
bols
VAR
promo
##iié
vai
pharm
##TIQUES
allocations
artifice
Kil
chés
arrivèrent
opérée
prévus
920
Gue
quarantaine
Evidemment
quitt
ameu
sensibles
##igh
nationaliste
010
##phie
Chopin
pénibles
319
dâ
##alé
Occident
premi
##ineau
conform
disais
##cisme
appuie
Copp
valait
noces
imagin
##ERV
Fais
chaine
Peugeot
indiquée
prunt
SH
Aires
contest
snr
féminin
Bourbonnais
##arts
récits
strictement
nements
jetant
délibéré
Hl
##CEMBRE
##ducteurs
relè
clause
Toi
négligé
intensité
Jud
témoigner
passionné
natu
viron
Fiers
##ning
débarquement
Jouv
assise
lique
Cochin
ions
ajus
##érales
déroule
file
##dica
chroniques
ponr
##jé
remarqua
Manon
réalisés
##lerait
##oye
obte
casion
##xé
Guel
superbes
exclam
Dér
appréh
Salonique
Chari
insertion
Mn
balcon
eat
BAT
##ernité
redouter
Conseils
termina
départemens
##quante
##ûment
ILL
jaloux
rives
Ottomane
Municip
##rerie
systèmes
commise
##UIS
##icerie
bt
##ançailles
Dru
FAR
##IVER
Press
##flu
Plou
ract
tarda
dérou
abomin
384
contrôleur
##erci
ensevel
286
LOTS
##odo
rut
délivrance
raît
iit
associés
##lh
##La
maintenue
décri
lont
savais
##ward
Adju
nuire
sportifs
Eden
crises
frau
tendait
##mid
##cons
ESPAGNE
peser
mières
dentelle
Ign
aisance
cut
égards
PARTIE
Bér
tombées
secrètes
statistiques
Janeiro
fice
précipita
##inette
joues
foudre
##77
Intéress
##VRIER
imposée
City
validité
damné
326
Servan
chinoise
substitu
CHAN
gam
JB
##outez
acqué
posés
Jet
Mémoires
avr
brun
##îf
détruits
ménager
tè
prévoyance
ana
illustres
Aï
restées
signatures
DR
##QUET
oie
pompes
##mange
épu
méditer
fécond
complex
lame
Wagons
loir
341
Bours
traction
fléau
congestion
NOVE
reconstitution
gouverner
jaunes
tirée
construc
364
##sid
cadeau
##formé
coquet
##érison
Vivi
auriez
Sup
qués
personnels
##AIX
REST
ecclésiastiques
souscrit
escorte
tang
substituer
sentation
sanitaire
##mot
Concerto
essentielle
##ahn
CIT
brisée
étranges
Causerie
heureuses
Autour
huiles
##lans
émet
##ancer
engl
##mands
Cig
dépositaire
së
affluence
aube
lerie
pasteur
réveill
Aude
##INO
iD
Nau
combattant
collier
Poly
##illages
##aroche
Debussy
Valois
##onneau
appela
##ILI
élevant
uc
transfert
pomme
aumônier
rm
directs
connaissons
##Tt
Blois
Ran
démon
possédant
libraires
penses
lomb
tral
demandera
##ûl
grenier
quoiqu
interdite
APP
féro
MINES
RÉDACTION
##fiées
##audun
##onial
##oist
réquisition
chaleureux
##enc
Troyes
accompagne
##acements
tolé
senter
joies
Sciences
sitions
##ÏS
participé
doive
rentrait
prions
parcourir
##bit
Mang
disaient
##ific
souplesse
##lieu
sue
décorations
intéressent
transformé
auspices
Schubert
entrepreneurs
SITU
draps
sonnel
Qué
géographie
NI
raine
fractions
##rv
Celles
embau
convenir
coïncid
souti
Saumur
##JJ
rë
précieuses
vapeurs
##eller
autopsie
Batign
éternelle
##gul
étoffes
##abre
Hind
mêlé
Cadi
stér
Mach
brève
chèques
demeurent
habits
séduis
Scott
Sing
Touss
désirant
inonde
Auto
accuser
matériaux
Freycinet
licence
CHEMIN
Santos
Valeur
commandeur
àe
##fiance
accou
pse
FRANC
nap
##CEL
greffier
impuissance
ist
##astiques
ouvrant
AH
resteront
convic
Avenir
offrit
tress
##1S
cray
Mab
recr
opér
■M
##ôi
aérodrome
##DO
##oiselles
MOT
246
Hommes
cyn
idi
Pauline
human
seigne
héritiers
pente
lycées
forteresse
ensei
##minaires
rencon
##lln
suivra
PAN
ETRAN
félicite
brillamment
formel
cordiale
Touraine
oy
prodigu
##Sl
##vèrent
retira
##GU
vendent
effectués
##ISON
préoccupe
ffl
IR
clauses
oue
rafra
iè
comprit
surprises
vingts
GÉNÉRALE
##any
Prévost
##onnait
Quoique
##RAS
hygi
rencontres
dura
MONDE
croyais
##nin
Crown
Marquis
reprendra
##ommod
##itudes
324
##isseries
amuse
secs
ANS
##PER
##Li
##cible
renonce
drôle
##riote
##sl
deu
tenons
mélanco
générations
EMPLOIS
vedettes
individuelle
HI
donnaient
renommée
##rines
##urément
carl
Jal
réciproque
habiles
##veilles
chargées
sç
Tav
anecd
inculpation
indigne
##chouart
##zt
ampleur
inci
Mill
naturels
auber
527
##oyable
situées
éditeurs
échaf
délicates
##BU
persuadé
bouquet
Pél
kg
revenue
##ttt
histoires
absorb
##uations
espagnoles
Super
vité
Ivry
10°
assurant
254
Lad
cav
ange
NOR
consign
##POT
pensa
##iquement
Sully
SERVICE
tonneaux
rouv
convaincus
reporter
##TITU
précisé
dossiers
défait
JAC
Turb
majeur
renseigner
perdit
Chronique
Voyons
indice
##mii
Rotter
plue
S3
1940
lieute
Trocadéro
reculer
constant
Béth
emm
i3
sugg
lb
urs
vom
##font
##ossés
éclata
télégraphe
ministériels
ordonne
augmen
relation
barrage
échéant
plaie
cassé
démo
##wl
Lux
##issemens
SPÉCIAL
Traité
entrant
Glo
discute
fasciste
gale
Roule
échantillons
assain
##rap
publications
Sib
##chures
peup
Grégoire
Triomp
tig
##iia
Vve
##13
##umeurs
prélat
médicale
éclate
fâcheuse
##ziers
AMI
académie
Britann
blâme
CS
Ls
prescriptions
neuves
296
##yrne
##oudron
asso
résulter
Dutch
triom
##ûn
historien
Alençon
North
irrésistible
##LEV
PARISIENNE
##TRA
hésité
Donne
Rouvier
Our
couloir
réper
dirigeait
##cass
mr
Sap
TRES
Dah
##rograd
cordes
joueur
##ANC
##oil
Ples
Biz
294
refer
##mpl
##try
##nium
SUE
Octave
Prochain
esi
##eston
héroïsme
Impos
##DICATION
entretiens
garnie
##ADIES
##tieux
quittera
trice
##CID
##mal
espa
causés
fluence
gaie
périls
amè
blocus
extérieures
laissera
ployés
##ilhomme
suisses
excédent
tricol
Jenn
orages
geurs
robuste
cartouches
épiscop
tendue
Pè
FEMME
##eral
##ik
conféré
Agen
manières
développé
##prin
##ensé
éternel
##othèques
explor
ovation
permit
turques
forma
flanc
exigé
##tem
exploiter
éva
Bouv
##guay
Rolland
soulagement
départementale
NOVEMBRE
formés
Thi
panique
##ATURE
plaies
conquérir
conde
enthousiaste
OT
unifié
procession
cai
258
blissement
maîtrise
sois
Ternes
dérob
266
##ovation
boxe
##quen
##meau
fla
sourit
ivre
##isto
Vf
Ty
pius
Province
LUX
Communiqué
refusent
fonctionner
édu
acquisition
cinquantaine
archid
Numéro
805
Melun
018
Vue
esl
signalée
commenceront
Avances
rappe
eni
Chéron
remplit
franche
enflam
##OUSSE
assiste
opini
manteaux
ELU
quée
néant
poursuivie
##nee
Bulgares
cire
ciment
sauvages
raf
Monseigneur
gauches
chet
contrées
369
frappée
diu
divert
##pectus
préserver
encouragement
àr
provision
génére
nourrir
Carm
écluse
pairs
##illées
perdent
bouff
renseign
enr
simul
vache
neutre
vaillant
##bonnages
ieu
n®
irai
gant
exister
##now
suppléant
réconfort
1854
pesant
stabilité
syndiqués
sèche
##oia
ld
acceptation
récla
■■■■■
Sœurs
##IGE
Amort
proposait
justifie
verture
télégraphes
nié
déton
##RIETE
Bouss
écuries
##inter
##tices
sociaux
Berlioz
gt
Béren
##vè
obsc
reve
##nan
ignorait
##raphes
imprimerie
satisfaisant
##EURE
Achille
artille
##otti
Pag
anarchiste
Canton
poup
Beyr
régularité
bronzes
ascension
OFFIC
impit
intellectuelle
##lité
##jc
laires
Lc
amor
Sig
river
Cost
transmission
lets
séparé
fixation
rende
##ics
étang
Boers
Tchécoslova
touchante
Réunis
arec
Pontife
baiser
boites
Yougosl
268
Anatole
émouvant
simpli
serré
chlor
MAISONS
ultérieurement
960
boisson
##iile
Gilles
créance
Catal
##RICE
audacieux
##chu
rail
Form
Oe
arabe
##onnu
Soirée
Jacquel
funérailles
rapprocher
Sens
Coop
Tristan
Pair
laient
toast
ajou
assign
posa
litaire
CONCOURS
souscrire
Bondy
réalis
diplôme
JOURS
amphit
##erves
##ial
volontairement
mêler
ennui
taches
Perrin
écran
payée
Fives
Of
joui
contrée
pourrez
Presque
descendant
Pn
rallier
##TIERS
##AISS
BULLET
sb
adhésions
espérait
Egyptien
effroyable
##enseur
ort
incoté
pressions
Demi
##trale
##chère
articul
arché
automobil
oxy
##LU
##ami
favoris
mousse
IO
officieuse
conjug
pessi
recommander
Gd
##vice
1840
pès
##loge
trêve
Smith
nv
gnement
affirment
Isère
ax
saints
serviteurs
Sic
restric
Beth
##AISSE
fédérale
redressement
Allier
comptoir
Rost
Bayard
##bran
dim
UE
Consul
loges
lumineux
Chargeurs
##aunay
Dinard
##gez
##esseurs
Adri
apparaître
tombait
tonnage
étiquette
enl
##audy
##tered
expo
##lque
pique
endorm
CHATEAU
Correspondance
Lumière
abattre
tà
##wes
ides
##ONOM
hospitalité
Applaud
aspirations
##kers
intendant
##œn
jue
bombe
##iee
chen
territoriale
provenance
##înt
##cations
Brunet
constances
695
dimensions
Lagrange
Jura
mations
docu
Publicité
antic
vitres
990
expiration
##visme
communiqués
##idon
héréd
Isa
loyale
jouant
vraisemblable
recouvert
Broglie
coureur
Rous
étroitement
##rp
chargement
##quons
lisant
Intransigeant
abb
POL
Martinique
pêcher
poteau
servira
##ISSION
acclamé
vérification
recommencer
sensibilité
Charenton
mentaire
maintenus
##mina
CINE
ed
uri
ED
Lucas
abondante
Froment
##ouses
tombent
##oé
incert
indépendante
IE
##iègne
##mestr
##issaire
##com
Montrouge
fréquentes
##quit
pourrions
ronne
rice
##cieuses
séparés
Denise
Grévy
clai
##Ki
enterrement
budgétaire
sonner
salie
Prom
Vallée
##HH
Berthel
basilique
tié
Shak
##ériques
pieux
Samson
Ua
susc
périodes
superficie
Mexico
##tire
pérille
##ssis
##BES
CER
stand
beige
CENTRAL
quotidienne
détri
##vues
Sérénade
##MW
1861
bandit
Beaumont
Lenoir
##çl
Levant
encombre
##vreux
Convention
GAUL
admise
réch
mutuels
réductions
troubl
mômes
##BO
##martin
cage
télégraphiques
Afric
Pén
Diète
innocent
aliments
panier
étudie
représentait
teinte
fiançailles
cft
329
Tharsis
orphelins
bonapart
fît
entrepôt
soucieux
obtenue
forcément
PRÉ
cienne
gor
##cey
intervenu
YOR
interpellations
gratuits
poétique
sourc
notables
confid
spécialiste
portance
Serbe
devin
intervalle
daign
Ecri
entourage
##omption
##ardie
immorte
courts
##log
IP
vigoureuse
opère
térieur
Granville
##adie
contrainte
Indépend
Basses
##posé
MALADIES
Tann
Gladstone
installés
##Ua
Usines
sailles
roumain
##ÊTE
usé
subite
##Ues
JP
dangereuses
Mant
concilier
quence
Georg
bordure
##nter
##ten
349
Pru
législatives
##IEU
permettait
pèlerins
typh
HAU
témoi
Expé
approcher
tabacs
Uu
Mér
Mois
fatigué
dédaign
recueille
éloi
Voi
PROPRIETE
prél
alimentaires
patriote
archives
Soi
cama
Salom
yi
îs
Beyrouth
AND
dynas
mensuelle
labour
renforcer
Athénée
##bil
stimul
Balkans
symptômes
##CAN
532
servante
ÉLE
suppli
Nour
##MO
Régnier
gués
Liste
commises
##eg
rv
employées
##mber
jugée
Pac
##iix
Monténég
écoss
##drez
boh
intim
plaques
835
mériter
qualifié
Young
reproches
##outé
Hausse
popula
mentaires
Marius
tapage
MACH
Duss
choisie
conçoit
fêt
rapat
##avent
Chen
Cluny
##ouet
alter
applicable
carab
##oind
çois
259
Langl
exécutée
escri
aul
retourna
effective
révéler
##uction
Saints
bébé
##ieh
préface
constatation
batailles
##jes
FAM
##lem
lê
apprécié
mêle
délaiss
Act
équitable
préle
colons
exigent
##ello
Ferr
poui
correspondances
achève
##mandes
Ligne
sq
##yon
DEMANDES
ciation
admira
##ilia
excessive
1864
marchait
tune
##vég
montés
Andalous
lm
succédé
Bâle
invr
hypoc
745
hern
940
##aton
##àti
SEM
fiancé
tendit
çons
frappant
##chèrent
##outi
dfe
exigées
mousta
Lock
distingue
Painlevé
lv
mariages
réglée
Nogent
lièrement
Trop
Lady
constitutionnelle
tO
755
nautique
vignes
EG
maré
Tn
News
tché
négociants
Fis
##olent
Antilles
interlocu
ÉC
absurde
répr
apportent
condoléances
quante
##anson
engagea
exclusive
##oît
apprêt
collections
rachat
étoit
Ib
Ingén
meublée
##61
##ATEUR
redev
##TTES
Coll
##OGRA
##viste
##avec
avertissement
Veaux
BULLETIN
COMPTOIR
Etant
chasseur
601
vieillesse
Vrai
favo
OFFRES
approxim
exter
##tiés
##vral
unifiée
##dj
nid
Redon
daient
Baisse
témoigné
range
##py
Sénégal
VOITURES
##pée
éditions
allures
SERV
geant
découvrit
##iera
rop
##Ve
habilement
quiconque
POM
##ên
BRET
indisc
6e
retenue
adver
tempérament
Gris
Mélo
tats
entourée
essuy
Espé
Martel
mortelle
chine
prescri
téress
traitées
délibérer
laissés
ripo
ANGLAIS
Nem
détruite
inl
atteind
zouaves
prenaient
Chasse
hangar
enquê
horti
Tran
Quelles
Maillot
évoque
répugn
commander
payées
comportant
somm
missionnaires
intéressées
signalement
courtes
vaincus
COS
défauts
##tite
amert
Faire
afl
rendront
embarquer
Lamy
consulté
espoirs
essentiels
fortifier
différend
##euge
attribution
violoncelle
contiennent
##run
crains
secondaires
pantom
##ated
##héon
Hoche
##ostics
cic
écarté
électeur
Silésie
Caoutchou
##éh
pneum
annexe
better
Mario
injustice
5o
promulg
785
championnats
Verdi
Bres
mang
PALAIS
Fontenay
Hos
bagarre
épousé
Fauré
outrage
##tc
contusions
Leu
probables
carnet
inédit
Mayer
automatique
tail
créations
connaî
Lafont
momentanément
posi
##UH
protectorat
phase
sexe
##jà
sentence
##beille
hectolitre
##nson
disparut
ADJUDICATION
##oriales
agréables
284
##LEURS
fascisme
échafaud
lisons
##camp
prisons
##ENCES
grandiose
##dus
##udence
##enons
Vire
cult
origines
rails
Coq
program
rigoureusement
canaux
rapproche
Rest
Orange
Organ
maté
chel
juif
toilettes
mano
bul
gibier
compo
Benoit
ting
garnit
Choc
plénipotentiaire
résis
ele
Zé
mala
TABLE
maçonnerie
##autey
lointain
réag
photographies
dégoût
Royer
lança
##cette
cte
Bonc
occupations
##herbes
cuirassiers
fô
remerci
Câ
344
polyte
Colin
##xie
éclairée
##ellénique
Sonate
salue
Menu
##iliés
professions
Isabelle
Dard
intrigues
##essie
Wood
monnaies
Fid
##onda
outils
REC
beurres
ABONNEMENT
##azy
houle
toires
suspendue
Groupe
nistres
##rë
bouill
rables
Soudain
Dag
Jacqueline
tris
##ICES
résidant
ARTI
syndicales
ALI
##lg
ifi
##AO
insti
vées
Marais
régén
équilib
originalité
provisoires
réalise
346
##odie
##atier
##iées
##aillir
ingénieux
allais
coudre
boutiques
courait
##nou
cambrioleurs
ressource
grouper
5S
Morgue
Capitaine
##ueux
désigne
Offres
lap
CT
Doll
264
i0
##chage
révélation
proj
ambas
NOM
antre
ottomans
##rédit
privilèges
juré
confondre
protesta
découvre
ÉCH
démocrate
systématique
Hautes
##EUN
PROPRIÉTÉ
juris
lira
Préfet
permettrait
élégantes
##aller
Pelletan
volée
Hue
1111
cruellement
##angile
pseud
clinique
naz
Ame
oies
abonné
top
timent
Reste
cise
##gal
528
estamp
prompt
##ners
##coing
##ensible
ert
barres
cidé
Trinité
Angoul
agissant
##vas
970
précisions
poignard
d°
étoffe
ÉTRANG
nécessite
interna
prochains
qa
dissement
deviner
Sures
radicalement
merveilles
##ender
nominations
pei
laïques
Yougoslavie
brutal
tasse
sentimens
royaliste
renverser
vez
posent
975
rideaux
##gnan
rassurer
transaction
congressistes
rendues
solitude
féminine
poison
Tomb
utilement
répondent
Bouillon
attribuée
Bleu
ing
Voix
##annes
Chav
Zurich
chaux
##ométrique
différences
Belles
format
ecclésiastique
Châlons
diatement
Lettre
menées
##ignac
524
##RIERS
voyé
##tri
résum
possibilités
##Cl
agran
éloqu
tua
senté
promotion
chanteurs
iy
sombres
Quels
plante
tuel
7S
BRES
causée
Ln
façons
Consoli
raie
suffire
sortent
refuge
##oyant
##endirent
Olli
gist
sect
Pamp
rajeu
étai
fassent
##îé
Chois
Pathé
GAULOIS
Sulp
Laur
Filles
sécher
dente
refroi
NATIONALE
##adés
encol
Prenez
##iM
installée
évacuer
Eag
grossi
adoptées
fout
engrais
Lépine
rachet
RENSEIGNE
Cf
disposée
vêtement
habitations
Œuvres
##actes
Sedan
féconde
cordon
çant
rejeter
dartres
Citroën
612
brûler
avènement
comté
triche
massif
Immédiatement
tube
##obiles
cloche
sinist
##utation
pneus
Excellence
abstenir
nuer
enregistrer
travailleur
fossé
deviendra
Force
profite
Jn
poir
eû
Cay
tet
pôt
réprimer
cription
FAU
##osphates
##ôu
mécontentement
ESS
##aig
enregistrement
##rm
Rotterdam
exagéré
Hans
##limat
bs
Ss
##arié
noncer
résumer
statues
consulat
formuler
doubl
##VRE
signifi
ev
Saigon
paient
Recettes
1859
applaudis
chirurgien
insérer
globe
gouvernementale
Pacifique
métropole
philosophe
##ustes
infini
onde
Rambouillet
fres
poignée
préoccuper
goûter
Gagn
Prussiens
##FFE
réguliers
effectuées
Rollin
accr
##obe
registre
##elop
Cerf
soigné
##litz
tï
##hin
âges
inquiéter
Vog
basses
##jie
fraîches
interdis
rendirent
Ille
objection
sénatoriale
NATIONAL
bouscul
trous
Spectacle
ttes
nouvellement
##ibert
brutale
##ernel
MEX
passaient
Dram
pereur
Prud
Maud
##yant
préférable
##itons
tech
soumett
manda
filets
PIE
##tilles
catarr
Cun
grippe
Soul
ajourner
iq
1G
Location
péché
villégi
Aubin
progress
démis
299
jà
nions
ouvertement
Train
poussés
vedette
Oue
Secours
ternation
préfect
prè
subsist
titude
plafond
primaires
résolus
escroquerie
sécul
##right
##jis
Sun
goûts
Tau
bris
uv
fp
geois
249
##duite
fascistes
anxi
carrefour
loisir
arrondissements
solennellement
pratiqué
teneur
Amiral
Caval
désirable
disputée
mouss
IMM
##comp
##què
facteurs
##pons
Halle
impulsion
toits
campa
anémie
OTTOM
nœu
soutien
qualifiés
autonomie
çà
lE
vall
classés
nègre
dépré
Jérus
##jit
émotions
##ortune
##dant
cardinaux
contemporains
pup
BES
Serge
description
dort
ila
925
Rat
gagna
##An
terminées
oppo
russ
Immeubles
coulisse
Léonard
indulgence
anticip
##érès
##DU
refusait
éteindre
eî
stabil
TON
dépendant
Econom
fixes
gnements
pein
observa
norvég
témoigne
quittait
gène
signés
##gas
Souverain
ménagère
##ographiques
Stern
avertir
Sue
olymp
Cors
Fur
circulaires
vince
mortes
Ferme
averses
Sche
##ium
loterie
révis
885
Maî
Pales
Buisson
insou
solo
prér
Soudan
Scribe
dentelles
sulf
tinée
creus
Favre
reports
##ïdes
Dauph
moine
artisans
nemi
annonça
fln
Département
533
nii
##lèche
cett
Mic
Postes
groupés
éques
1815
évidente
poussant
barric
prolongation
##ïé
TOI
alarm
##koff
fermées
279
##autemps
voiles
essor
émissions
menacés
littéralement
chocolat
##IEME
expédié
Cail
##lètes
écroul
provenances
motivé
parte
tombant
Disques
ores
noté
fans
Diane
oar
célibataire
##ftl
Ion
ratification
équivoque
néglige
rient
Services
JEUNE
meurant
encaiss
##trie
désirait
YORK
cotés
inoff
pb
Seuls
entrent
Oscar
SIX
poursuivit
firme
Délég
silhouette
désagréable
##êl
##êre
chris
tronc
prévision
séques
frac
reviendra
peintures
Bic
promus
osc
Hir
289
Joly
##illerie
##wski
Law
tireurs
AFFAIRE
événemens
pillage
sâ
Quer
déguis
Luz
Bérard
casser
permettront
##RIT
##où
qiie
oppression
maines
invraisembl
locomotive
##lémy
avancés
moule
Restaurant
269
Meurthe
saurions
suspect
exo
moyennes
XII
aucu
Communales
correspondante
Ras
dépen
chimie
pc
##GH
Pli
Stres
approcha
Lecomte
##Ll
##FI
Cid
Marion
tuberculose
voirs
##ener
dactylo
infaillible
legs
manquera
maquer
##anoe
Réau
creux
##accord
Diam
bib
exclusion
RUSS
imiter
indépen
paï
paya
##voi
##marchais
cum
##orr
Cafés
bienfai
TERRE
Dim
offices
attray
##ANO
tempe
provisions
dti
oeil
attentats
prussienne
##veté
flacons
##proch
anorm
ûe
##oca
##flé
##meaux
académi
infi
faï
ACHAT
Civ
cessaire
oeuvres
Rochef
##tS
cil
hameau
##lère
##urd
Adjudication
Jav
teintes
BIJ
distribués
##ACT
enray
détachements
mardis
Fallières
##lb
##vag
##lence
Toussaint
subventions
accordés
cylindres
fesseur
provi
lasse
menacent
lées
Céles
Pele
invitant
##vc
surprendre
Bercy
##orités
mel
grades
législative
cution
##RIENT
##culeux
cq
bunal
successives
895
##aba
graines
emportant
hydr
épicier
considérant
Rail
##cala
pourvoi
##27
nauf
détenu
inquiet
espionnage
vérités
bonnet
Traitement
Carr
judic
signataires
animée
hussards
projetée
sauvegarder
parlez
Médaille
##aw
consentement
##tid
Joff
Etu
mécanisme
germanique
big
King
électr
##atel
rafraîch
##amie
mc
consécu
das
désiré
chassé
Giraud
##RAGES
sale
endor
traitée
DÉPARTEMENTS
##nti
rentier
paysages
détaillé
exté
horaire
Walter
fonda
GEOR
ponse
releva
##èbres
Méridion
livrable
Steeple
i8
VV
solidement
##mettez
iet
nera
##anti
gentle
VOYAGE
##inos
##KA
humains
##AMB
gravure
mals
vase
traître
##iement
envol
Bloc
Instruction
Tit
##ander
Saul
rythme
##IÈRES
Piémont
danseuse
exprès
cç
##adiers
abolition
imi
Geoff
##vré
##18
##asme
REM
MB
illustrée
ure
délicats
suffisent
aw
sach
connaisse
raies
gagnée
Ener
voudrez
coloniaux
récep
##roise
accomplissement
Trianon
##apo
SM
limitée
chard
soire
PIL
montrée
votés
1©
Tron
##liard
Mexic
ranger
##LLES
Boute
##quèrent
##dd
Buffet
séparément
Poirier
imposent
excus
raire
accor
##rg
tacle
Déclar
partagé
architecture
négociation
digestion
##aité
sévit
pacifiques
Marx
chif
##ABLISSE
blics
fêter
ouvrait
ulti
clam
vrir
##hauss
latine
borné
##JO
531
##rç
kios
prairies
Bœufs
Arnaud
maréch
marchan
ratt
Clar
expositions
Maillard
qté
Baltique
outrages
##diques
Tourcoing
Espagnol
courtoisie
mémoires
fondateurs
##olin
##cipation
désapp
Intérêt
RENTES
consolation
édifices
objectif
marron
acteur
Gis
détourner
Bez
tumulte
##rae
lamentable
Roquette
injur
çaises
dy
Gabrielle
roulé
confident
lace
PROD
##éraient
préoccupé
illi
ceau
soignée
aggl
deS
occupant
prolongé
durera
emprisonnement
Beauce
ït
laissons
Merci
exasp
tv
Hot
##qa
lam
suffisantes
dau
##erons
Cambon
COUP
impun
épisode
acquitter
esclaves
introduits
santes
malfaiteur
##ibaldi
extérieurs
pion
##asth
sévèrement
immobile
annexion
##issiers
Pute
divisé
##roya
constitutionnel
##24
liée
##adour
Tiss
fermiers
##lett
##naud
détriment
Derrière
agresseur
Gens
Vou
Salis
déser
537
ye
fidè
écli
plats
rigoureuse
Florent
##male
essaie
ORLE
Pichon
frap
considérés
triomphé
nettes
volon
##vants
musées
Journaux
délivre
reviennent
diplomate
décisif
Jeudis
Sév
##stadt
coord
##ratoire
Année
vn
putés
culpabilité
Léger
GÉNÉRAL
plébis
sculpt
orientation
rç
administratives
cloches
DOC
CB
Out
loyal
Etre
fûts
lI
1250
##ecc
PARTIS
indépendants
##var
charmantes
couler
Hôpital
aériennes
Rach
revues
habitent
tribut
##îtres
baisser
traites
##égation
##change
Lisieux
chestre
lnst
juridique
##jan
rei
publient
ÉTRANGER
Dites
1U
London
binet
Colonne
provoquée
ima
Leip
confis
Brah
traduire
##atz
tremp
fatal
Kh
parisiennes
agrand
durs
amours
Valenciennes
promenades
nances
Actuellement
Harry
blessées
Nit
iir
##trations
GRE
camions
gations
Troisième
5C
mérites
redoute
rén
lq
Express
Continent
serviteur
##üs
phie
##roits
complètes
fiacre
débute
Dy
jard
Ms
ravages
##quc
pavois
dol
éveill
parais
Heures
épargn
Benoist
##briand
Tay
exploi
inse
interroger
prô
broderie
Rie
criminels
déshon
combler
1789
couches
observe
incertitude
RENSEIGNEMENTS
maçons
quie
Richer
##OW
repent
##rogation
vulgaire
phar
Benj
UI
##aff
Croyez
##lte
2e
##chat
ployé
prénom
Populaire
Bertin
##etz
##fert
Rapport
cambriol
pardes
estiment
LOUIS
remords
##entiment
guichets
Chauff
##iront
##iy
canonn
citation
sanglante
prépa
feuilleton
exercée
fers
notabilités
Burg
ID
leader
royauté
provocation
attachement
dej
Damas
mouchoir
Salv
attest
péripé
boulangers
université
distill
mobiliers
complété
##fp
ferment
Fen
curés
##ives
Ave
M™
sommaire
resterait
atténuer
émeute
Herz
ceu
pias
incar
répartis
##nié
variant
Rip
remboursés
##asis
comiques
imprimés
DIREC
pourrons
llle
##ovitch
lopp
Amen
indiquées
réglementation
##OIX
cà
visiteur
Mist
Fro
Leclerc
##riè
pts
logne
1842
##ladi
déte
terminés
projectiles
prétendait
##IÈME
##qus
##mule
Mond
##ARE
observé
déran
fiscale
fores
Kong
POLITIQUE
##êché
##matique
livrent
doutes
Holland
marchant
avai
seignements
suspendre
souligne
soupçon
Azur
ise
boi
frein
parvient
alliée
usur
Kra
munie
oû
nai
puissantes
##ÇON
désignation
Douv
##illade
ik
apprentissage
cadeaux
Kr
##islas
haricots
buffet
##ruptions
Jérusalem
##jui
frém
croissant
rae
AF
recense
Compiègne
ze
agissements
fili
tionnaire
lauréats
Grandes
##atlon
Température
glaise
Béthune
certai
arres
Brou
Consultations
Sr
##Ja
LETT
##CHEL
iâ
aveugles
Pavillon
Goujon
somb
##ben
éloignée
succursale
refaire
carbon
Ménage
revu
Vor
##colie
##rati
##MT
retourne
Coud
795
##63
Suff
ein
Triomphe
JARDIN
Yok
cident
désol
volés
##ACS
Cousin
Caron
Corneille
sexes
Smyrne
régisseur
sistance
Herald
Succ
apaisement
##oucauld
ACHE
##miné
ASSUR
CAFE
aborde
négocier
bom
chères
Duver
Dinan
Demander
fest
fragments
voyer
exposée
émanant
libé
tans
##ITRE
617
PAYS
lisait
Bég
syndical
Lemoine
##ructions
joints
parvenue
##ardeau
léans
spontanément
préjug
songeait
plètement
iW
ferez
##gler
mutuelle
Tis
Chur
##het
savantes
assas
paroissi
concevoir
##hrer
tution
fér
Horace
surs
##lî
SOO
Domin
fession
##eld
Transport
##vor
équité
Courbevoie
virent
confirmation
4®
##VER
Dt
gêner
##ENN
soulign
proclame
##iies
rencontra
visages
By
délicatesse
sculpture
accompagnées
Champion
mum
ava
leure
Picardie
##wood
##jer
métallique
mid
assaill
Ober
Méline
pomm
tch
##teu
##lou
Fg
##cè
##ismes
ECLAIR
persév
Beaumarchais
imaginé
NÉ
régionale
traîner
Officiers
particul
Loup
Nil
conduisit
sax
mélancolie
607
ivro
distinguée
Sirop
ROYAL
éf
jetés
rugby
##less
manuscrit
Goy
1856
##arel
Stéph
bn
rences
cousine
##vestre
##urées
##rency
##ualités
réalisées
Musset
Houston
Ché
millier
RESTAU
sm
seizième
indiscut
DD
contri
Bombay
Avi
lations
##anee
sidence
gouttes
Stavis
anxiété
##insule
##500
empressé
inau
prétendant
Dord
##gueux
oet
raffinés
INFORM
demeurait
querelles
nm
vocation
allié
Lyautey
haleine
Card
ORLEANS
indiqués
niste
dérai
prépond
##fields
##pects
role
exciter
lapin
Somm
Ori
Peau
créés
##assy
abaissement
popularité
ajournée
dais
##hre
##Ht
misérables
Virgin
régner
ISS
Assurances
comi
##igles
Ple
##CESS
institué
Secrétaire
métallurg
##meil
louis
Batignolles
demeuré
républicaines
contraste
lisme
précipité
Adèle
Fus
Noces
achèvement
agresseurs
souliers
nance
##ÉM
865
Fleurs
##ibre
rires
utilisation
Fla
paresse
réservistes
exposées
municipalités
sott
auberge
Chautemps
Couronne
TITRES
##table
##anda
dune
épanou
attendue
ancêtres
Launay
grêle
vigoureusement
aû
mortel
dys
excursions
clou
Votants
Naturellement
députation
cuiller
conseille
griefs
##atig
hono
##orne
Sidi
##lls
frui
Muller
XVIII
Juil
pipe
##ématiques
occupa
##olont
iG
##oms
repoussée
Will
honorer
##fen
BT
HOMME
Ee
commandants
Odette
gardent
##ragé
glisser
Nièvre
seignement
remplis
opposés
paquebots
Départs
##Sr
Dufour
751
DÉPÊ
référen
##ousseau
préten
dinaire
citons
1858
Archi
rubrique
##fleur
infortuné
chè
##outerie
âpre
nient
##ecôte
LONG
répondra
majo
fosse
Auxer
intelligente
semblant
relevés
gentilhomme
mons
##BT
constipation
Wur
visi
hel
Carter
Achat
énig
##dions
internatio
Espa
Hugues
FOU
théâtrale
Européens
spe
##oU
##IONN
catégorique
débarqué
##Ms
ambi
Congré
Ester
Turbigo
solliciter
admises
appor
adaptation
##atti
amphithéâtre
tord
##émas
effectivement
heurté
rembourser
ranc
opposée
finales
empe
Ris
##INET
vénérable
conserva
Tchécoslovaquie
torrent
chercha
breton
GA
cotées
fraternité
battue
TRE
poêle
indéc
MARTIN
Vac
assujet
pétitions
niques
Latour
Chang
normales
HENRI
Députés
##RANT
Quartier
POSTE
numé
accusée
##tisme
excuser
posait
inventaire
souscri
continuant
030
VIS
nesse
Guitry
tresse
fervent
cross
dal
oublions
dispa
préjugés
sublime
##avane
capitaliste
cerv
##tee
dévas
régnait
abré
promener
Panthéon
plain
pensionnaires
Dauphin
dépositions
Renan
inval
##agements
soupe
caress
velopp
émi
légales
Montau
fillettes
respectivement
##gro
appt
coq
##naient
noue
nerveuse
rochers
Aca
##olr
Charité
datée
##CTIONS
Dod
MES
##mbour
Chantiers
Sera
clairvoy
Odes
##73
Job
845
fourrure
##igs
CAPITAL
romancier
##kine
pudeur
tirent
gnant
intérim
Glu
neau
gées
nisme
MORT
tème
Dour
526
commett
mement
##emment
commandée
Bain
rhumatismes
dissid
Montes
##dig
Fland
munes
oour
vs
##Vl
constatant
HAL
Avent
réceptions
désav
commandait
sép
Floquet
physiques
communale
écritures
##merie
composés
cerne
MEUBLES
sive
##vinrent
émises
sk
irrévoc
##inie
décap
Call
bach
gardait
vivacité
tus
VERS
récri
cah
##01
chou
Omnium
Bérenger
expans
loisirs
##ciés
Hend
Batelière
balkan
cendres
##porte
décré
occupées
amendements
001
construite
savaient
citations
ud
disposant
iß
notions
##auds
séparée
##ysse
créances
Olympique
charbons
atténu
Sarraut
PETITE
desti
Murât
deve
résolument
joi
Deauville
Mouv
amertume
SITUATION
mesurer
Hilaire
Wy
##ancés
1845
tunnel
##rose
Lys
entières
diminue
riage
HER
Regn
réb
exclu
chrétiennes
retarder
oignons
Arrivé
##94
vanité
##érateur
##âe
inférieurs
Mantes
carton
monstre
loger
rieurs
Constitu
##lettes
Isra
Barthélémy
Circ
dh
Garibaldi
isolés
##ôtel
Acadé
respectifs
##ouvé
citad
##SSE
apprenant
606
##Tr
Fle
Maurras
claires
soviétiques
bombardé
plète
855
déses
contrefa
affirma
dU
variable
##LER
##ducation
apportés
tins
arrivaient
Condé
LILLE
Marigny
apparente
Sei
vaille
séna
##HO
##oub
1200
pénétra
##ceur
##ffé
déterminée
Rond
comparu
atteignent
Pere
1800
carn
influences
menaçait
auguste
Flandin
PIERRE
Derby
tolérance
##OSS
##iniers
berceau
##ariser
PAB
cipe
Demandes
commém
imposant
demeura
Royaume
##PORT
algérien
abîme
acrob
foudroy
fuit
effroi
clerc
priété
Blond
##illait
##nm
dré
engins
sécu
##Be
croissante
HOR
Gord
impar
dynamite
Villiers
Deschamps
Gues
Berthelot
adou
Aubry
Finalement
pianiste
cabaret
fixant
##orre
coopératives
dirigeable
aménagement
rejoign
##orez
résisté
kilogrammes
Lire
Ae
Droits
retraité
Guelma
##fient
lonté
##ourne
oran
optim
baux
prétendue
MODER
jésuites
Bouches
##IRE
emprunter
rendaient
DEV
dams
Shell
respon
plaça
conteste
Guizot
##iiiiii
##obles
quait
Rud
mmm
##eule
pleure
attri
##ueils
Emb
Vas
blie
5i
créature
Faute
SALLE
Pall
bad
cieuse
##lif
suédois
hectolitres
déduction
gir
indiquent
secou
Porcs
saurais
Grey
aperçus
Bloch
apportée
Prob
Castell
troublée
##inal
Martine
aides
tières
rendrait
##érs
peign
##vettes
Pontoise
conservent
Mél
Jérôme
rti
recule
vendredis
ultérieure
salutaire
cî
##iae
colonels
appréciable
ambassa
Jacque
##urera
ingra
##obé
antérieurs
##GRAPH
mark
915
déclarés
incliner
billard
ressus
##ouy
transmett
Parls
##seur
astron
##ellion
Ciel
entendue
désaccord
pondre
NUM
Martyrs
manoeu
Rasp
Calif
diffusion
soyons
##RIM
convoquer
■l
liqueurs
efficaces
partielle
prospectus
donnez
incendies
perfor
détru
récem
ime
##jii
unit
préférer
tabl
anime
dédaigne
Landes
11°
sister
photo
mart
netteté
joug
hont
INTER
Gœ
rédacteurs
Voul
Hardy
réduis
rivières
précède
mettrait
fournitures
Tos
lug
dépo
##aiu
elie
Hector
Baudin
Pétro
termi
parlemen
musulmans
soucis
exceptionnelles
Zan
##illiers
##eriez
##ernay
Cambrai
Cape
Gode
Drap
malent
■de
##pport
ACTION
adressent
ganisation
entendant
deurs
##AILLES
négliger
acid
Rédacteur
##èg
##ffa
dénoncer
MOU
##OX
##BA
victorieuse
##UF
libérales
versa
##LIE
##ansk
Bade
logt
Francisco
records
##low
Argentan
comédien
Ambroise
Lore
lante
##bg
encolure
DS
injure
flûte
législature
ya
Samuel
Extrait
Donald
Julie
##jue
débau
##ÉD
êtr
unè
Jr
ade
châssis
Had
corre
aci
gradu
##üe
crié
Wl
océan
incur
régionaux
mats
##nic
Nouvel
fourrages
involont
Ps
grises
##desc
châtiment
adressait
##mesnil
Dres
bulgares
##aya
Lucienne
Bc
coupée
618
vies
culs
tambour
néf
émus
esca
Bris
inclin
OMN
CATAL
limitation
rhén
prévient
farouche
ballottage
toas
FINANCIER
Vaux
conformer
bavar
##ubre
Kor
réside
##ogène
féli
deB
accueillir
tw
CQ
affirmant
##fant
corruption
enthou
##IERES
finance
nocturne
maît
Albanie
enlèvement
sobre
RIV
Gâ
##éton
sévérité
jouissent
imprévu
tirs
tremblement
##KK
élémentaire
##èze
chantant
défiance
abordé
nef
échel
Chartered
tombes
tb
hitlé
##iL
pî
Prot
Favart
##zie
##TRES
éten
trême
limiter
cd
Lycée
ulc
descendait
survenue
symph
rapportant
corporations
grond
lOO
sam
##âme
538
##akoff
dénom
primitif
Vai
tits
Coquelin
monie
##ïes
fme
Pérou
Bald
essentielles
Bonnes
existé
##ilis
Chariot
canots
échanger
ïn
concourir
barrique
##culture
aviso
##avage
Contin
SIÈ
##43
Ull
politiciens
Sables
Alain
##orés
##OLE
Nantais
Autres
Marque
##rium
installations
Tribun
tivement
##ILLON
périodi
Sulpice
##arche
Quinze
normalement
##issime
611
efficacement
Herb
Desc
Reynaud
quié
##pan
raître
médicament
Ic
caractéristique
relais
##umée
##geur
Edi
pavillons
casse
603
GUI
anth
ménages
prover
##versement
informa
intol
coloss
Norm
eette
allong
Malvy
uis
Benjamin
##TC
1833
contradictoires
##âtes
Pà
fourrures
noyé
Wey
##ANN
figuré
##Hl
entiers
dimi
##ariés
îes
542
bretons
6S
paux
clare
hémor
Crimée
sv
Pasquier
Pépin
##tm
Puteaux
CD
Nie
Conse
##ator
Barrés
attel
Echi
guise
ledit
autorisées
##dc
prévent
instruire
détermination
champêtre
flo
impartialité
accepta
vô
remboursables
câble
hant
écroué
intrigue
SJ
sardines
##ià
maud
jeû
rappelait
parviennent
entendra
PORTE
##gences
accél
bâtonnier
1831
assentiment
Grim
Sosnow
convenait
Constantine
PAPIER
##aee
905
honoraires
Havane
mentale
enfui
nelles
touchent
Farines
intitulée
##ïf
ratif
disions
dénoncé
plébiscite
##YR
voue
##contre
monot
meurs
nisation
TELE
nuage
bravoure
corsage
inad
rondissement
##nion
réclamait
authentique
facult
subtil
ombres
fourg
tisme
surgir
collectif
Mie
chanteur
##enburg
Cotons
brochures
niai
battait
aç
##reira
Delac
LYONN
Conformé
##mia
démie
##It
##mandant
puni
##OLES
VOS
préparait
écraser
Jersey
552
Fes
vestib
paa
conférer
talons
agisse
habitué
##énaire
tournure
BRO
inflam
547
Suresnes
Davis
PASS
##prudence
exprimés
Shanghaï
##video
608
##iliée
sauvegarde
trine
ene
possessions
laines
lient
rappellent
##uct
Dyn
cueill
représailles
##MANN
libérer
##hd
emballage
SAR
Legr
Joueurs
antip
Pentecôte
Pouv
demment
éping
sultat
accusent
DAMES
doué
rions
1832
intégrité
Corm
Stein
Schumann
FOL
protégé
Navarre
valant
VENTES
##ÎS
##cheurs
##von
feutre
redoutables
1834
fiers
coquette
abstention
##peare
dispute
génér
Aust
dynastie
pensant
préparatoire
##ayé
ÎS
CHAQUE
pressait
reculé
Boncour
■d
Iran
partait
devan
##jd
courent
demoiselles
Autrichien
##équ
perquisitions
Serbes
diocés
ensem
fouet
Ferré
prêtes
disques
##ingue
régulières
ivoire
##fec
Tli
##ocq
prédécesseur
Cand
##inerie
sollicité
##LETTE
sympa
vaine
Montmo
Montfort
dures
ajoutent
Batt
##cî
##iiie
leux
représentées
défu
musicales
##jg
Désiré
Hur
Leh
discret
Bin
Malesherbes
démagog
saisies
implac
jorité
prérog
espion
AUTO
blir
PAU
ralli
mariés
ordin
DK
perpétuelle
souper
Claudi
wi
Chevre
dçs
mien
cantatrice
##Wi
HIST
invin
Vient
##ombes
odieuse
Loin
Mieux
cessation
cë
chauf
##bla
##rentes
Contenance
ENFANTS
##HA
isolement
animés
avança
Sœur
seaux
Herv
comparer
aboutit
composer
##PA
##usivement
ciales
SANT
télégraphié
antérieures
pardessus
Farine
acajou
grecs
GAU
doubler
Qul
arabes
Pley
bourre
verrait
phases
conducteurs
##reinte
impo
agglom
quise
Maubeuge
ramène
572
1835
##icide
Cardi
Fren
musulman
cristal
mercredis
TEMPS
reurs
Guérison
perm
##aid
Ké
Sén
patriotiques
pantomime
fabriquer
muet
Iî
pharmaciens
mate
Ale
fti
titution
peste
1847
Syn
sourd
602
##queux
entretient
Cii
bâtimens
##owsky
##eres
froment
##ITS
Distribution
abso
##HB
casernes
Amélie
nœuds
Contrairement
ferrées
caux
parvenues
##OIRES
ordinairement
Morlaix
sténo
Agn
ISO
Cardin
naufrage
##eusement
##tration
tements
Pétain
Houd
fique
AUTOMOBIL
bolchevi
Delc
##OUVER
préparés
hippique
lû
Poudre
suffisait
Dupuis
CAU
État
##iaz
brune
pç
brûle
Brin
justifié
bne
Dion
symphonique
##cant
automo
Monceau
##mpol
symbole
##tings
ondes
Jas
manufactures
qû
accompagnait
Log
##XX
##EP
##AST
réalités
éloignés
##oïde
MOUL
Appel
desseins
contrôler
carottes
réparti
Mouton
démén
REVUE
loyalement
persévé
bicyclettes
rag
Gras
DAN
Dori
mandement
ECOLE
coupa
apparences
complémentaires
constructeurs
pq
rédiger
meure
amar
##cès
Chante
budgétaires
fendre
SAIS
RU
institutrice
agg
##miste
Education
##ablé
subsister
Lombard
##éenne
Brown
cubes
##amas
Montaigne
kl
bâtir
##inl
probité
déplorer
légalité
##GNE
VH
souhaité
proportionnelle
répéta
aspects
applaudit
##ragon
loca
curieuses
Pauvre
##iat
Franklin
Wilh
décombres
##ocratie
##ohama
AVEN
CINQ
alent
rau
interne
PERS
##resson
##Uon
extraordi
zaine
Got
ÎO
huis
##bru
##ETES
engagent
3t
Signé
maintiennent
PORTUG
remplaçant
One
Delaunay
SAU
Pension
obéissance
935
##kn
cabi
##mblé
##yne
entoure
801
inap
hymne
paré
tricot
aquare
##oriaux
blas
parado
pieusement
ARM
6t
poèmes
Ricard
era
##ypt
ôtre
##feld
péripéties
Gérant
■i
Philadel
dominer
polo
##étie
instamment
##oman
tremble
##vise
Jun
Plo
imposées
consuls
diamant
çh
1500
541
Placé
Foreign
apportait
législateur
brigades
rades
Williams
accru
oubliez
canadi
refusant
Donn
Energie
##Ts
##iE
Elec
renou
Bla
090
Emma
##bey
##psie
Pard
tardé
Macéd
Consolidé
émine
pte
interrompit
##CHY
hippodrome
Diff
Colbert
Mignon
eg
tiroir
tJ
£5
lnde
passive
versée
insistance
Joindre
inondations
Sainl
##rope
danois
affirmations
Bizet
Vr
voyager
lntérieur
instruit
escale
##âit
parages
discrè
allou
créées
Conformément
euro
Sad
Cuivre
monu
##uratif
retirée
Sicile
##baud
gnée
THÉÂTRE
sultats
Harmonie
fend
éleva
aine
rar
##amen
paraissaient
Ponce
Rhum
557
##ïî
nay
##midt
Ey
poly
respectueux
MÉT
##bos
infant
intrép
saveur
çu
Liszt
policier
éminents
amuser
Importante
album
##GOCI
médiatement
purs
Sire
empressa
##We
##oln
imprimée
atteignit
Hoff
##fd
Galerie
Laissez
limon
renfermant
justesse
couvertes
##Ma
##matum
prolonge
##lj
sourde
##LETERRE
danser
facture
déception
amical
cuisse
##gui
pressant
rivé
Goss
Jamb
cartel
##mê
scellés
Véron
subdi
Stanislas
1100
Bs
meublés
recevant
instantanément
Fabrique
commémor
tê
cochers
Constitutionnel
chent
proposa
Visite
bijoutier
Brand
aviser
traversant
BRE
communion
##ourie
reng
ôt
Amortissable
variétés
Cadix
compatriote
ement
mencé
Usine
##enbach
4u
circon
voué
##Ta
ambitions
##AINES
##ânt
Reb
détention
##gier
##mard
politesse
Dran
arrondis
##ectue
interrompre
clu
##erna
térie
empreint
consigne
##arités
##chéance
considèrent
##quants
Prime
Méz
vigilance
cell
éx
##menl
ALLEM
##ract
##ennais
##kets
##uréat
Has
Scala
devenues
fracture
##ogue
2a
Barry
infid
tragiques
Page
Ciné
jac
Dep
rubans
phénomènes
Lef
Placés
##OMM
##çnt
ng
herb
Guignol
Parie
régent
##joux
Intérêts
Lom
##chanel
qiii
cotes
abondantes
exécutées
lancée
igno
excent
JAP
fracturé
Vll
Henne
attard
553
modifiée
Juli
##cents
toc
AMER
souligner
chéri
Wert
Notons
sanctu
4o
##orama
compliments
déç
##oulède
Hors
fatigues
devises
priver
Chaumont
applau
bellig
fray
Creus
REPR
##adet
server
##anny
couronnement
Eagle
567
Colette
gime
REL
##ENSE
inal
portière
multitude
Notice
Poup
repart
amer
##Ct
brasserie
Fey
entourent
priétaire
identique
POST
HOTELS
plaisanterie
maro
LIN
excuses
fantaisies
embrasser
TRIB
mottes
##CIP
Rochechouart
##lee
##ureau
##kes
##ANDE
liè
circulent
tiste
garantit
parlera
Périer
##icité
##âtres
080
exprop
ciations
■m
proposent
##fid
##asson
démissionnaire
##assait
interrompue
désastres
Monténégro
##aki
restaurants
surchar
ceint
RÉS
oot
timide
EXCE
SCH
SUEZ
##fica
affl
arraché
souffrait
1C
défil
humbles
étour
ALIMENT
gérance
perpétuité
imprimer
Tien
##tey
Béziers
corp
aprè
##BÉ
iN
Tamb
proposées
Peletier
interven
##rê
##tts
inventé
étroites
rêté
prodigieux
tiè
cice
diab
blier
imitation
sèches
Terr
6i
Saï
favorisé
##AMP
##arine
##OGUE
##uj
détacher
562
Marce
saisissant
irlandais
multi
reproché
##atur
pout
Encour
##iane
spéculateurs
malveill
sérén
Village
dilig
éton
trô
embarqué
##RT
ez
dération
Asi
Ponts
##parc
vitalité
douzième
1838
présidente
atterr
##oulet
##owa
##rj
finie
TERME
aiguille
borde
précédée
appuyée
Firmin
551
©t
##oon
rocher
AMIABLE
MS
Bohême
sse
cycle
gendar
##omi
reconstituer
irréproch
Algérienne
##chettes
Equi
relat
Pf
gnon
Tob
616
blin
gêné
contester
Nad
rapportent
mettr
##uerre
crayon
maitre
potager
mobilisés
chevaliers
Princip
serg
##anx
CÉ
confession
absol
motocycle
daté
palpit
meneurs
##wick
##loo
enverra
sauront
##Bl
Joie
Saut
INFORMATIONS
cière
gag
autonome
Clam
vera
houille
##trt
Corb
douces
diplo
intellectuel
dépensé
gnent
##pc
Soldat
##clair
centrales
irritation
lévrier
Fried
chevelure
Vat
Joinville
reconstruction
lents
MOD
Maïs
tirait
dialogue
td
##dites
invisible
goci
avoines
Taitbout
vor
péniblement
Kir
JI
volution
##çai
Wel
accabl
enseigner
pub
bornes
Produits
4M
paup
réduites
succèdent
honoré
îî
notion
International
##riens
réels
défensive
Pur
fS
##AMA
raconta
viti
dédain
seiller
ploit
considérait
Sj
garç
Combat
portante
trahi
doubles
060
sauc
centiares
##yc
ploi
RUSSE
éprouvée
SPÉCI
Morning
piers
##utions
enlevée
##crt
OPÉRA
Cartel
##Or
empresse
##chester
##ricts
attribués
MAIN
Lemer
yous
directrice
réclamant
MEILLE
rappela
Article
recensement
Distance
##ex
impecc
convictions
##did
Evangile
##arno
##ÉTÉS
Odessa
écoule
Ala
plénière
perle
NOUS
rect
menuisier
Disons
quan
satisfaits
995
formulées
Portrait
Médecin
attraction
retient
admire
##aze
dissiper
LIG
##mitt
Hôtels
jouets
##rh
##bro
##assier
Foy
Hémor
cellules
GENERALE
Syd
fatalement
BERLIN
Chré
affreuse
rains
expressions
AGRI
##RESSE
inno
Camar
transféré
ordon
Ox
##kins
Ravel
futures
##AX
paiements
ordonner
clin
interprétée
##pédo
TÉLÉPHONE
apparut
douai
réactionnaire
Lus
1839
remporter
souffrant
fournies
Home
veston
##blatt
souviens
antres
insuffisante
dévelop
##ATEURS
vaines
Rochefoucauld
Crispi
Lah
##énavant
Circulation
kll
##rof
ANGLETERRE
Être
##dou
##MU
Chartre
Geoffroy
gars
Nouveaux
provient
lingots
##mou
Cob
ROME
lnf
carrières
632
##iif
intermédiaires
féri
exclusif
repli
Guadel
##mouth
Major
Hern
##ude
Bà
Aller
i4
##pf
retrou
##lv
dépouill
Reinach
souhaitons
modérée
enfermé
retards
rétrog
unitaire
Bans
silencieux
ina
enthousiastes
##sant
##nè
alour
##dicité
terror
trésors
COI
fanterie
cessent
ROS
##ÉRO
scrupules
rési
annuellement
##olf
fè
prémé
dépassent
eï
Past
légèreté
CAMP
jes
peupl
tickets
fraudes
tailleurs
##bant
##17
sî
kilomè
confiés
horiz
Lié
exigeant
##ousset
mime
CUIS
sd
Mireille
Church
##RESENT
chaus
répandue
rapi
Améri
dées
incri
##rates
verdure
commentaire
637
dénouement
porcelaine
mense
éph
OCCASION
##vite
lg
carg
##cration
gilet
nutri
INC
incroyable
prest
gentil
inédits
Vera
enquêtes
pittoresques
prévention
appartenu
finira
##TJ
Lesse
AIR
##RAND
inébran
poin
##issés
PALACE
##veaux
Propriété
contemporaine
tardi
Hébert
jg
matique
Jouiss
indirectes
Montevideo
réveiller
lointaine
##acts
péné
inexp
Appar
dls
Soyez
##erville
ambiti
##îS
##uteau
vile
réactionnaires
Danton
ancienneté
muscles
##itr
mendi
contracter
enchaî
jm
berger
souligné
##TIVE
##outer
ôn
##OV
acharnée
##pule
exacts
percepteur
CONCERTS
Cac
Tim
avertis
##NEL
hommages
##bard
jè
SUCC
Are
raffer
Laroche
lez
Uru
rever
polémique
optimisme
ridicules
criait
ett
éprouvait
modestie
discer
scien
##orale
Sophie
##hie
Rossini
Millet
initiales
insuffisant
Passe
##aillet
Yokohama
ténèbres
Bols
##teuse
justifiée
##tter
VEND
électoraux
##eo
Chass
intégrale
582
##orff
habiter
Hai
recommandée
bin
Lén
relié
recueillies
éo
vases
##DITION
Fred
protecteur
Annam
##aé
##etas
rapproché
Hohen
Lia
ALLEMAGNE
Dai
##AA
Califor
##84
essaye
vestibule
surcro
menait
seconds
patrouilles
donnèrent
PARF
Oues
favorablement
thons
siéger
siennes
leg
intérieurs
Herbert
613
##KN
##éniques
Rosa
mélancolique
bibliothèques
rins
Décid
Chance
##clin
Vitry
augmenta
##olre
ITALIE
soute
vign
##tits
ehe
Virginie
florins
Pièces
lndustrie
Ama
rivée
##mènt
coiffeur
ressenti
comprises
dudit
##ratoires
CEDER
distri
Godard
1814
Tun
signaux
##aby
EH
NAV
Hach
##Mn
Strese
Pierrot
fondées
1941
abominable
##nets
vêtue
##abie
garda
##landaise
intégralement
##enf
Lig
mienne
privilégiée
assistera
TAP
lith
LIBRAI
Applaudissements
surer
##ilon
##orium
##rah
échantillon
Gers
intransige
secourir
flls
libérés
célé
##iai
##pont
expliqua
nutes
oriental
proches
sables
exprimant
entraînant
CJ
XIX
Réaumur
interalli
déris
saisons
visiblement
enchante
aimables
Sâ
enseignements
587
vront
Rê
DUP
liai
ajourné
age
##aniales
escrime
##ouis
Médic
Ell
Delah
BRA
siste
lev
autori
dation
##12
domp
duché
chai
##utiers
caissier
imposante
valise
BIEN
##ulés
S6
mixtes
pia
secousse
annuités
Joubert
voûte
hésita
chait
paras
districts
Macé
Espérons
##sse
##oyage
vagabond
infatig
garan
Espérance
##beuf
##vot
mourant
gracieusement
##UNIS
ACT
543
hol
##ayes
passager
Ballet
coûteux
ONT
asthme
efl
chât
crus
inti
Roque
cessa
Studio
##AUDE
Argenteuil
exagération
HAR
sportives
serrer
aériens
Exiger
aü
gasp
Sembl
iai
lins
martre
grin
soles
élaboré
##pur
anony
appuyant
Mout
Châti
répétés
##ÈVE
stupeur
nicipal
ARR
##idor
##hazy
distinc
exon
BERN
Tage
bonhomme
catholicisme
##ppé
ractère
exceptions
General
##oiries
échos
challenge
Fall
couvrant
pilules
lourdement
surcroît
Stavisky
MESS
Ecurie
marge
tyrannie
Cock
connut
vaudrait
diplomates
##aisir
vibr
affaiss
famine
Spectacles
##ovine
éventuelle
Prie
##endrait
ius
##tiq
PS
craignait
Christophe
Sus
attrist
rétablie
séminaire
vex
Auberv
##ïse
Plomb
##Ar
lundis
assailli
Pardon
##point
Delcassé
CITRO
##zzi
éclairés
Avran
archiduc
villas
achevée
##onnaire
Cigale
mortalité
doté
Progrès
chaleureusement
prorogation
vaise
ino
##Ie
notait
ultra
##ERES
merveilleusement
gouv
consistant
relaté
PREMIERE
nace
##lable
paysanne
ROI
Barre
##àe
attachée
aptitude
jaill
##rar
baïonnette
plancher
commod
révolutions
mangé
convoquée
Elie
abandonnés
Succurs
constituant
comportent
douloureuses
Question
servit
##ïS
pée
constance
##ied
christian
cais
1837
vesti
expédier
plement
nantais
deviendrait
rébellion
vra
Toc
UT
Ethiop
entres
Steel
CIRQUE
envisagé
punir
décharge
gigantesque
supplice
Perr
geait
Cil
valable
12°
##plan
vains
##illis
Agents
protège
parier
##WS
racines
restaient
Guadeloupe
Mandé
jetait
##aïque
##OLL
##fts
Rain
##bault
mécaniques
Gela
ordonnances
définir
JV
coure
Victoires
exceptionnels
Çh
jS
autoc
Quad
synt
Siam
lade
roche
Prélude
Paill
minime
Avoines
dût
réfugié
pelouse
Fér
##gène
Uk
revivre
OI
sentants
Deschanel
bier
##erva
PENS
rasoir
##bad
cuit
accomplit
ORD
échangé
str
##ollo
##PARTEMENT
somn
Leblanc
palme
mélodies
échangées
serie
universitaire
##Ei
Wolff
transit
##herbe
##bao
##endront
consommateur
colla
cées
Nemours
FRANÇAISES
Concord
nales
##villiers
subsi
aristocratie
messes
Athlé
tistes
suivans
quil
glise
##iio
jugés
##MONT
inattendue
tôle
Dreux
estrade
pesage
##cluse
blouse
vélodrome
formaient
lyonnaise
534
##wer
Carmaux
Monts
démange
##atlant
lenteur
TERRAIN
##55
accueille
économi
Bonheur
Couv
enfuit
composant
##messe
obtiennent
incompati
Boli
nç
##uira
##ylvan
ordonna
laborieuse
âne
##ÈME
croyaient
Stal
médica
compétents
vrait
omis
zinc
expres
##lU
Lann
nègres
neutral
pratiquée
##chs
inscrites
chinoises
##êtement
Clare
alar
clés
Signalons
pacif
phon
tricolore
JAPON
plication
##pondant
conduites
construits
##ésies
##ôns
mental
##KR
obtenues
Vass
multiplier
désespérée
vessie
frot
AST
tuées
rétr
##ttr
Day
définition
mout
##utenant
carreaux
Guyon
légalement
ôté
atténuantes
##aù
paradis
déclen
sains
##oret
constatée
invari
adieux
mettez
réus
compositions
chement
encre
##alan
##urn
##cj
Bazin
Narbonne
##llle
pd
éh
4t
##OUE
prévaloir
##dad
restitution
graisse
##arge
##lanes
péra
rouler
conduisant
pouli
disposait
##alley
aggrav
Ollivier
Sî
DRO
perce
suicidé
Doubs
discutée
BOULEV
Ane
##tère
577
lentes
ril
Voyages
Echiquier
comédiens
Band
dg
Varenne
roumaine
avois
cx
occupaient
polytechnique
Constans
##mblés
Ry
brumeux
##iH
Banques
Théophile
gagnants
Transports
AVANT
crip
##km
carb
autrui
ameublement
Auster
japonaises
méro
lest
##onnettes
Viviani
vingtième
Objets
monar
adultes
jugements
tec
presby
Laver
ther
héroïques
proposés
coiffure
autorisant
OFFICE
joua
résiste
ifl
sauvés
antérieure
Ferté
Antonin
##seau
algériens
progressé
cravate
Dublin
fouilles
fluctu
chée
Dantzig
dépendance
ïr
##PART
viandes
Issy
culté
clairs
Industriel
téte
géant
combatt
##raphie
primer
orne
##his
701
rassemblement
Douvres
##mart
##OGRAPH
iK
carlistes
pï
démonstrations
croirait
isra
Frère
déroulé
CAPITAUX
##NI
couver
##Uo
tox
plaçant
acces
AMB
Bast
détenteurs
##ppel
fection
civique
Rag
ador
tapisseries
brutalement
##fâ
presqu
atroce
expansion
Industrielle
lrlande
iA
escadrille
familiale
suicider
Gap
##rettes
##RID
648
continueront
étonnante
malaises
chimiste
Besnard
Trouville
crain
inscrite
primitive
faveurs
BERT
vj
JM
##pj
effectue
##émol
##ufr
rhumes
arrêtait
flambeaux
##eui
Meubles
##ÇONS
nistes
douanier
##osi
##amt
##ôe
ama
pèsent
##aaaa
Norman
##aler
oser
##RÉE
Costa
renseigné
##legraph
névral
xi
passèrent
athlètes
Toile
Montmorency
##itung
autri
■L
lamb
##97
wa
5Q
fanfare
##GRAM
négocia
ESCOM
renvoie
Direct
hec
##aitre
##çaise
térêts
écouler
patrim
AO
bague
bienfait
chaînes
tionnelle
agonie
dirons
douaniers
triomphale
passif
pourvus
sacrés
brisées
Evêque
traduis
pattes
Interrogé
Parfum
Prosper
##ILS
##itérium
béni
Langlois
charb
Récit
unies
sels
exercent
enlevés
##là
antich
INDUSTRIEL
allumettes
Cul
iç
inverse
posant
Zinc
annuels
pces
insignes
##geron
promettre
infraction
##nante
renversée
Mok
Courcelles
PET
poé
Hartmann
dange
Appare
déroulée
judi
agite
majors
Hanovre
parallèle
pourrai
paniers
##aillés
BUREAU
tâcher
clô
clandes
Ely
attaqués
##vateur
##érieu
qùe
Goldfields
lettré
entrevoir
métalliques
bouc
colline
onzième
aucuns
Chim
Dro
invoquer
Pampel
diplô
Mall
MUN
8S
matérielles
conseillé
chantera
Artistes
oti
succes
immédiats
Gasco
##rys
versés
tapisserie
fontaine
BLES
##16
##iture
admettant
622
Cec
Gail
criées
Edward
Rendez
Lind
plaud
HAVAS
prenons
Bras
TRAVAIL
Dordogne
hât
##nau
invita
Rossi
escadrons
##queville
pilot
Frais
seigneurs
communiquée
manufacture
peindre
DÉPÊCHES
arranger
villégiature
traditionnelle
applications
Mong
##dè
ennuis
sop
lers
##IEUX
Crète
Vn
authentiques
Gauche
perdues
DEMAIN
Scandin
tond
##gerie
Agri
REUN
fidèlement
Mathilde
derniè
##rasin
##lp
paternelle
##IIIIIIII
apprentis
rabat
cultés
matelas
Arago
JEUNES
imposait
Arsène
froiss
plaignent
luis
Titres
Philadelphie
NT
Contes
IMMEUBLES
toasts
éloigne
LIQUI
racc
##eff
majoration
OCCASIONS
administratifs
émouvoir
Poisson
Rémy
marteau
##gnement
Shakes
Longchamp
##mètres
formulé
charte
digue
épargner
Wo
lieue
murmure
confédérés
caprice
##ivet
##anch
##HU
brevets
##erb
exécute
Sti
PONT
##ocité
omp
##viile
attendons
préalablement
jde
REPRESENT
##îon
applaudie
TV
brûlés
rette
décad
Mogador
Dubre
536
régle
sagement
consa
acquittement
Leipzig
Merlin
DÉS
épouvante
défaillance
poiir
##iqu
She
ioi
##MANDE
instances
piège
Diction
Vés
amélioré
##accio
Terme
##ïde
abn
interlocuteur
##cke
cultiv
633
jurisprudence
télégra
rid
592
##xx
suspects
consulte
moto
Roméo
Leygues
OM
effacer
grandement
VICT
Eve
609
##De
gnait
sérénité
inspirée
introduis
Litt
Californie
concorde
##jre
Certaines
Loterie
Worm
Brochure
Churchill
BRUX
##estre
raisonnement
enfuir
procé
périr
consoler
i°
attaquée
compétition
##ëi
outrance
Chansons
poumons
martyre
habituellement
meubl
##guen
Pare
adoles
rachats
Canc
##olite
architectes
Foyer
Alsaciens
ETRANGER
EUR
Pue
##lnl
Yon
appartenir
Créd
dégagé
Ken
##MAC
complaisance
natural
MILITAIRES
IF
sueur
paires
humide
Chas
Ture
##aillerie
Sah
Tarif
compositeurs
GRATUIT
Lamoureux
009
pable
##ologues
récré
pés
gine
journellement
foules
menus
estim
diffamation
Conférences
Nevers
HT
présidentiel
1841
minée
PP
COMMERCI
surta
frai
achetés
##oncert
##dorado
Macédoine
échouer
##ULTATS
White
réuniront
cule
##icie
lâcher
Institu
tois
lh
exploité
Déroulède
iou
apl
quelcon
priant
ordonnée
Masc
##éns
peler
Girardin
dénat
Kt
##pnt
inan
patronale
inoubli
##oury
innovation
galant
##TIE
Klein
##ovs
agneaux
tillerie
aéroplane
louée
Colombo
Vénus
##poste
Alp
GARANTI
planté
poudres
##OUSE
appointements
Avey
##anos
herbes
troupeau
accordant
Angé
Thou
douté
Sainteté
coupés
propr
S7
##àis
votées
##aiso
restrictions
escroc
rens
Alexan
farce
poux
Autant
désorgan
profitant
trôle
Hoo
naissances
offl
déchéance
Eté
échan
Rois
révéla
respectable
Blas
Sardou
AUTRICHE
ouvrent
tombola
548
##0N
Myst
arros
courtiers
##limatation
recomm
TOUTE
réali
accourus
Edit
rudes
Messine
primé
prélude
serrée
liques
##dorf
##1N
##ioa
##év
Lait
prépara
tentures
##Bs
Précéd
fours
Marceau
divor
profits
Tenez
vraies
1300
Moret
interpréter
Goutte
marse
jc
associa
retentit
appréciations
DÉC
missionnaire
Citons
##apar
estimer
Tort
##lenne
brisés
brutalité
Derv
Pétroles
##ndrier
##ehe
remplies
levées
Barr
poussent
##ffroy
nupti
##ORI
rabais
baptême
deviend
épuisement
Forêt
résolut
Det
chemises
##ices
terminera
##audin
##îo
627
tiendront
fardeau
pation
volt
successifs
individuel
trac
##vus
tall
Hyp
##YER
Tiens
magni
excessif
##INA
nin
##illette
Lesseps
désh
Lever
##endrez
sommation
529
Dider
opiniâtre
deT
gerbe
défavorable
##nen
Vélodrome
aot
onne
Choisy
##ensives
argenterie
réfugier
avoua
BAINS
623
ûn
esclavage
##uniors
Magne
pures
##IH
départementaux
indem
HEURE
châteaux
Kin
artisan
massacre
bleau
épou
déco
##ilée
672
##aes
prélèvement
incapables
Riga
Villes
##abe
LÀ
empreinte
##vei
prévenue
plet
pieuse
compliment
Afri
1s
basée
suggestions
Sid
antérieurement
dela
##ùl
Glas
##Et
beautés
constitués
magis
dévoue
vau
##rites
puissamment
embras
##enaires
PUB
##urgique
réac
SUI
irrégul
PAV
sites
sanglant
##sies
nels
pains
Folie
messager
drames
sentine
CIV
##47
communisme
##ambique
ks
tx
cotisations
productions
maquereaux
fert
Benoît
exceptionnellement
##VR
tité
centime
RENAULT
candidatures
##lione
inte
Polo
disj
suivaient
soulevée
Extra
TME
Méridionaux
Soissons
Pron
Ports
absorbé
##froy
##nettes
Bayeux
îo
disparaissent
##Qn
individuels
bats
tendus
marchent
583
sire
Britanniques
espèrent
Western
ornement
échangés
clefs
563
livrées
DEC
demandaient
caractéristiques
Caoutchoucs
morue
985
Duchesse
##28
capitales
##TIMES
cales
Trieste
##vrez
abattus
##çois
ultimatum
##pté
signalons
soustrait
sinistrés
méfiance
Condam
organismes
Rêve
Hélas
nomique
recherchés
approvisionnement
##roïdes
Procureur
oné
##lys
##zol
mènent
priseur
##verait
oj
amicales
DA
héroïne
précep
phosph
##tiez
attentivement
chutes
étouffer
Chauv
##fô
Opé
provinci
réi
concess
##PL
##oda
Angel
terne
##iras
##ommun
Bateaux
##linois
conceptions
500f
Ferreira
ILLUST
##tilde
moisson
verbaux
##66
##uche
COND
christianisme
pondu
traîne
dignement
aoc
conviendrait
Pomm
Evreux
raisin
bassadeur
eile
appelant
royales
DIN
##pôts
apparaissent
##îer
##diers
##nb
berge
falsi
i9
Fantaisie
livrait
deau
gagnait
Bretons
Salomon
##KB
##usen
préserv
iû
Spe
Alais
##monde
hectare
Med
faille
brèche
Guyane
pardonne
succéder
ww
##ouan
diarr
##Dt
##hle
discrète
ppur
fêté
antiques
eont
allèrent
çi
578
##RÉES
tT
lise
visé
##mez
Lemaire
Briss
7i
Etablissement
affectation
Sydney
liser
##meat
constructeur
journalière
Ral
1M
mémor
imput
■S
Nam
558
621
Cherche
Vien
cevoir
DESS
Verdier
brute
congrégation
dop
pronostics
placard
Dje
HUILE
vierge
Prim
Aime
retrouva
##ègre
##ureux
lau
mousseline
020
##OCI
soulager
Renne
boulangerie
##doux
plom
FINANCI
digestions
tonnerre
##3t
dérober
fondre
enfon
indices
Discours
veuf
propa
essayait
chesse
délire
embrasse
Clerc
splendi
chevre
manne
légend
endur
contrai
##ilhac
gin
guides
épidé
##fou
postales
sermon
manuel
##ÔT
qut
lys
imminente
pratiquement
scie
##Ule
renvoyés
TB
##ovic
BOULEVARD
essen
##ambule
embou
traversait
huîtres
subissent
MINIST
##ercussion
dup
naufra
rigoureux
laver
Did
Choix
splendeur
spectateur
eli
endi
070
Diderot
contempler
##bord
##oma
Rouv
Adj
Coin
immobilière
croyances
Savon
##INI
INST
##Ce
Urs
musiques
fabriqués
mortellement
##bien
rO
Conte
àn
##GIE
kilomét
Telegraph
animées
cialiste
NOT
sauté
arrêtent
empara
cultures
Courbet
Blanchard
Ip
Locarno
Bib
détruites
poire
##ree
Beaujon
##regard
confidences
avaries
##acca
mettaient
tentés
nce
Coli
bretonne
restitu
voyaient
voudrions
chauds
##UD
Lâ
gru
monarchique
Intro
rattra
Articles
veste
##vrerie
597
jam
traversa
Caumartin
Chil
chevet
##grin
Incendie
égales
Indis
Joffre
circonscriptions
tardera
dépenser
##ZA
##nei
amena
##ouillères
##aland
calomnies
##oyées
631
bary
élue
simultanément
épaisseur
évasion
Circuit
##olets
médicales
subsiste
Finale
dividendes
fiscales
sinistres
##GIQUE
##29
##field
soupçonn
ique
##îtes
Garant
malheureuses
Françaises
enregistrée
ice
568
573
Rabat
Chai
Auri
bémol
##eng
bronchite
univer
dissoudre
##quais
insé
forges
##BON
dépu
##oncés
lçs
courtier
945
Angoulême
FILS
638
pitaine
flagrant
mobilières
Vign
communaux
##CIDENT
dît
##Qt
Noy
##iiu
dépassant
##icaux
expressément
Huet
registres
vivons
Auxerrois
propice
cervelle
iF
##lens
consacrés
rame
##fà
Altesse
##fln
emploient
PREMIER
##trée
Caisses
intervient
indivi
##CRO
augmentée
lords
Ache
##ùn
réjouir
Vite
##achon
values
bisc
##îï
Cycl
BRUXELLES
##ione
##pente
Massé
##eterie
occupera
méritait
salu
dépe
Jaune
Enseignement
ballons
tentes
féerie
natur
tionnel
boni
désirez
consultations
Inspec
aimons
armateurs
##enson
##llc
Briansk
antiquité
acceptant
lunettes
épris
1010
invente
mensuel
nick
apportant
##wis
##illier
tragé
Musé
Rt
toyens
rivaux
antim
quinzième
##VEN
Bug
Ih
##ké
barbares
répercussion
maris
rumeurs
##roux
Déjazet
graphie
score
##aat
dressée
##enel
Inn
Dre
Corné
derne
tti
0r
tails
Partie
dirigent
##37
##paration
Loul
retenus
##lop
##omet
Menuet
contingents
Buss
##ionnée
ale
pressés
Net
contreb
majesté
regagné
chandises
##ËL
conquêtes
roulement
déploie
succomber
##riction
Ménard
##aria
premiè
gouvernemental
##UCTION
##pb
##isté
dana
Stresemann
compta
résulté
##iaire
proba
##aua
doutons
aînée
Anzin
Rohan
préco
Machines
protégés
Ambassade
##PPE
immédia
piqû
##ttl
Lange
Aumale
Js
##uller
Barré
bienfaisante
Salons
fantastique
Vicomte
attends
crit
torité
ruisseau
Oj
retrouvée
réclamée
604
Longwy
Franz
##riés
annulation
attendit
cision
pelé
méridionale
approfond
isolée
Boite
##Sf
##urrection
défaire
augmentations
chancellerie
TARIF
exhort
Apres
disparus
intermin
Hort
##dii
Charte
##elinat
Laboratoire
Tb
IK
bos
Gin
Concier
alé
bleaux
Cholet
Dick
Bû
##onl
CHRON
thousias
incen
##ressive
##estes
##mei
parie
mensonges
JT
vrage
exposants
minérales
trom
say
ecz
Parlant
philanth
Palestine
livra
eil
Tf
rience
pleu
trip
sonore
Alt
##ànd
théra
culotte
##mers
apôtre
##LEX
suivront
Harcourt
CHARLES
Amédée
descen
Médoc
CAEN
LOR
lienne
Sag
ille
prodigue
militai
supplie
Double
agité
aq
Douma
##omey
##PO
logements
Park
Vaches
maxima
mondial
##rantz
courageuse
lisation
Préc
Coqu
Lob
##ËS
insérés
Chateaubriand
Dauphiné
produira
##vitch
précipiter
561
loue
brace
Sub
lancés
##wm
réunissait
dio
Observatoire
Goul
vende
ciaux
CONT
roles
Dupin
ÉTAT
cordial
ohe
##JB
grosseur
investigations
persévérance
Telles
profonds
atterrir
inutilement
égout
négligence
ignorent
réunissent
sécheresse
visant
##prét
greffe
##éniens
solli
##osion
soudaine
iner
congres
##apit
tuant
formalité
##gers
##WI
614
##ake
Assem
surmen
poulain
##add
relie
engin
applica
conque
dec
Colmar
S9
##ÊÊ
TOUL
##sté
CYCL
chérie
transformée
CRI
UC
urb
perdant
##feuilles
AFFAIRES
Gascogne
##rip
haines
disputera
##ahis
fï
surp
Pointe
vétérinaire
trouvées
tenez
##hm
soutenues
adouc
CC
neveux
consolider
Queen
interroge
rêvé
acco
flex
Vann
croisière
##rienne
brigands
bagne
rurale
éminemment
LEV
paroisses
SL
responsa
dants
occupants
atterri
mât
àv
##BAT
Mf
illustrations
choisit
##issée
kaiser
spécia
réclama
##YE
Bakou
reuses
lourdeur
déni
UH
réduc
##asque
clie
Jacqu
réfléchi
sauta
promulgation
Lebre
Honor
leuse
contracté
Sii
SCI
casquette
Philippines
dorénavant
abbaye
nen
mim
uf
respirer
protestent
forç
lutté
esclave
honnêteté
àt
blond
##6t
évoquer
mettons
Laiss
rayé
aliénés
présidera
MILLIONS
persécution
afi
minus
artificielle
##marès
Magasin
##ço
Larib
fréquents
bob
aimez
rg
échauff
Guide
dissent
laite
froidement
saill
Hippolyte
mâts
typhoïde
réclusion
comparaître
blème
##llt
grecques
manifestent
sing
maltrait
lointaines
cac
étourd
##isie
667
refusée
SYN
vv
##anet
nourrice
Picquart
##nerait
##opée
cemment
Yvette
fée
envoyant
Bit
poussait
ub
redress
patronat
suj
louse
manifestée
MOBILIER
quatuor
ténacité
Mangin
##nté
##ocations
FABRIQUE
Agricul
##llllllllllllllll
meetings
accordent
habituels
égyptienne
GER
mystique
collabora
cine
Ceinture
patient
##CAR
Pec
lancement
712
##verte
Oul
blait
Poud
##ellan
gamin
Voisin
025
##îes
confirmée
roulant
apprenti
nét
##irsch
plie
##endel
consécration
inu
rixe
çait
##oif
Mélodies
Laut
##glas
##GL
##signol
ambulance
581
Tell
##pic
acompte
murailles
##më
surexc
ronds
réso
Gig
iR
Soup
fret
harang
microbes
##jane
unanimement
##orées
13°
Drôme
PILULES
##arisation
##onville
baccala
Fouc
évite
JUS
Christine
##jas
médie
confess
Xi
##Uf
infé
##FORT
trésorerie
##gine
##pag
Ford
festival
regardé
uin
##PHE
cadet
VIT
##andum
eS
rui
pardonner
##nerie
811
Asc
Aimé
##LEUR
Plant
décro
langous
BRETAGNE
témoignent
Rhén
mutilé
africain
applicables
Pelletier
##Mr
dez
tonique
fume
Caroline
préfé
Alfort
geur
##sières
Scar
571
professionnelles
1836
confie
romains
pleur
reconnaî
##hensible
##wig
##Jj
##ùrs
emparés
éveil
Albi
Brû
lond
##67
alliances
Savez
##hait
ust
fournisseurs
désintéress
douairière
CATALOGUE
payant
contradic
calomnie
##TEAU
causa
##oyait
ATH
observateur
africaines
cabri
Juste
Danses
##trés
coque
ORG
Qualité
calibre
Karl
iour
card
douanière
épicerie
LITS
séparent
Prêtres
1150
czar
FORT
serbes
Maurel
disponib
##hat
544
##umés
devais
internes
SEUL
sag
expédiés
bagu
retourné
CHINE
dominant
rales
transmet
##vir
causant
laume
ressorts
How
Tag
éveiller
angoiss
Catalogne
ano
goudron
monstru
attentif
Travers
surprenant
Lans
Quarts
accré
zones
froids
progressivement
Michelet
CANAL
Mathurins
Archives
vaillants
incomb
tige
Hesse
RÉP
épisodes
symphonie
Mc
rencontrent
stage
Lachaise
##orant
verront
Mutuel
##UNE
2t
accentue
cats
##ommand
Chevallier
croyance
##érera
Châtel
traîné
permettez
FEMMES
inexact
tuyaux
Def
prospère
grasses
Pleyel
fruct
cueillir
bravos
féod
##jm
commet
butte
opportunité
##ainé
aveug
CHAUSS
flancs
honore
natation
sculpté
traditionnel
réelles
Div
Mord
tudes
Salisbury
##OYER
Jacquet
##bell
i2
briques
##OUD
Mendel
jugera
##miner
catéch
fournie
##RIS
glissa
THOM
554
pério
cordialité
honteux
gieux
veines
##ek
##minster
Reuter
caps
##neuf
cub
planche
saign
préliminaires
ardents
coupures
indéfiniment
piastres
contribuable
saute
rivage
RETOUR
Tho
ires
libéralisme
##lerin
licencié
593
##case
intestins
menti
Lockroy
Klé
Ili
traitent
alté
dénonciation
graine
S2
pêcheur
retrouvés
Hachette
fantaisiste
obéi
oomp
Provost
Sax
Villers
##cp
fracas
priées
##ERC
##liot
##vilie
tannique
##âu
enri
unissent
résigner
flétr
##nons
■p
insul
soieries
décrire
foncé
enre
807
SQ
Jeannette
Roses
substances
Rau
Nath
gnés
##intes
évité
l°
##ingen
instal
théorique
965
##rison
Granier
##ein
##raphique
SALON
Sosnowice
lièvre
RS
pesetas
cuisinier
collaborer
Kru
jockey
MARINE
##landes
pâtes
nourris
eor
ette
Permettez
##aumont
Consolidated
Muséum
Prêts
plas
Ménil
Pige
642
upe
##fan
Boissy
reil
Kaiser
##JETS
basé
Pours
consta
détroit
Raspail
ALB
rassemble
Green
##licable
Lucy
##erme
vendant
insole
DEBATS
Abonnements
##VS
Impérial
féroce
##uleux
ité
nombreu
nerveuses
Montauban
expédie
pù
uit
##ouleurs
tome
arche
##istique
Wald
##brale
satisfac
##chery
955
urgente
Monnier
##sique
628
Leduc
divisée
jettent
fortunes
Unifiée
CONG
Esterhazy
réit
comprenez
##gna
Hollandais
##anisme
Martial
##aignac
rieuses
##ariste
tei
GOL
séc
france
baigne
reding
restriction
exprimait
muraille
##tiné
divisés
goal
barbarie
dessinateur
Bry
##bac
créateur
inadmis
AK
Crème
Baule
gieuse
barométrique
Trouv
Grat
persuader
##rophes
admirateurs
cente
écla
chu
0i
douteuse
His
rectification
Jim
Moyen
moines
pû
Pouss
566
prairie
Irs
finissent
visions
Mann
folies
bénéficié
Clos
promise
Shakespeare
sanctuaire
philosophique
couchée
Mallet
consacrées
Gli
##ërs
trouvez
russo
MAROC
Beaulieu
évalue
etl
Lug
Tue
défec
fiscal
assit
576
coûter
écoutait
##but
cpl
588
révocation
inventions
familière
riode
divergences
##isaient
Michelin
isi
reprenait
B0
Allard
médiation
##kr
OUVRIER
profil
jointe
Uruguay
soutiennent
dité
commençant
BLANC
montres
bouton
chargea
limous
continuellement
Delmas
mii
##nec
##QN
nages
##uera
ensang
désarmer
plément
##abor
##DEC
affirmait
AVI
dera
larg
extrê
Dynamite
mente
abro
natale
teindre
belli
toir
##aht
Penar
serpent
cét
##oriques
Til
##Ué
établissant
818
##lèmes
##OTTE
brésil
dience
##réal
rafferm
PARI
##jî
##32
écrivant
ACC
similaires
appelées
##well
Gordon
##cutta
##ordinaire
tourb
##asthénie
##oniale
instinc
progressive
##sn
##hc
##oso
œuf
Phosphates
Impossible
rumeur
pastor
houleuse
îf
eto
tubes
échap
rurales
craignant
Flandres
peints
##zir
échecs
Emission
LIS
##quins
versant
Dupré
adhérer
##EB
céles
heurter
intendance
pêches
lanterne
##hem
caté
ressemblance
Eldorado
attendus
fox
portants
varient
539
Fel
poursuivait
JOL
Alc
bouquets
contrem
Justin
1020
##hampton
allu
convois
subies
habité
##Ull
Cortès
broché
Djib
lants
Bourdon
manœuv
Kon
frisson
556
toil
■n
##rangers
tirées
chantée
■t
départementales
défiler
bré
ardemment
soumet
Eglises
remplacés
Décidément
1A
Mesnil
Politique
concéd
bolchev
liqueur
armer
##ressif
regardent
assauts
9S
rassur
##iea
Douanes
Martini
##tix
respecté
halle
couronné
QUES
Carnaval
carrosserie
Etait
Caléd
publia
IG
Jourd
nil
Billancourt
##tiè
GRI
##aaa
##®®
##aristes
1810
##oléo
accents
Equ
sortira
inféri
conserves
lancées
##itifs
Valentin
garnies
entam
APRÈS
Niort
##CITE
gouvernemens
762
GIR
diale
Taylor
circonstan
assisteront
Haydn
Adieu
Gond
##râ
pauvreté
Goblet
colonisation
Laure
conce
cessaires
vaincue
défendent
organisent
anni
grossière
##jne
écharpe
fournissent
ML
phare
PUBLICITÉ
disque
PARTOUT
habituelles
##bas
réta
algérienne
Pois
vitrine
##pard
##orf
i6
S8
notoire
refoul
##lera
respecte
##rilles
décorée
abondamment
##mois
faillit
##otre
précaire
litaires
707
Juifs
écoulé
trale
Angot
tulle
OD
Isle
succède
initiatives
approuvée
MANS
Agences
##auer
##orcet
grotes
caill
Stat
prédécesseurs
Tén
apparti
comportait
itt
lét
Dramatiques
##ravion
pécun
gastr
Jî
Bich
Supplément
inop
journa
QUIN
gouvernants
Plé
dirent
RUSSIE
Sis
Meudon
SOCIAL
rités
théologie
##huis
identiques
Bouvier
Challenge
Mayol
Brid
tendres
J0
éléph
Poil
transporta
tM
##ista
Volga
##HM
647
Tarbes
Aigle
1846
Casa
##ônt
stén
procu
micile
##DITER
##incourt
Bleue
variée
Calcutta
HIVER
GENERAL
portèrent
àp
##cale
Immobil
reconnaissent
cipaux
sù
dévouée
ROUGE
##entions
1844
gravé
Aveyron
TRÈS
acceptent
axe
amples
frig
##œuf
Wilhel
817
ébén
Ifl
intégral
Spa
débarquer
Colombie
regar
tfe
Républic
Mante
dérable
ORIENT
poings
##inel
mettront
##aif
##nii
sê
dominent
émail
établissemens
##chaux
Claud
cordonnier
amenée
obl
##uia
naissant
truc
ARTS
tolérer
LAF
Morand
perdait
éprou
##rep
protestants
Singap
inaugurer
remanie
dentiste
hypothécaire
Baudry
Jur
rances
démentir
octob
##sc
##stal
COTE
CHOIX
##14
coupes
chimique
Vigne
efferves
Sacha
##piter
méfaits
Subs
Sci
Mécan
jne
caveau
JA
sonné
audiences
##pns
brodé
couss
montrés
veine
conclus
##SB
rétro
Gus
Antonio
vernis
OUVRIERS
banal
##rne
admiré
phi
essayant
arrêtera
Laon
AUTRICH
germano
Dos
distraire
##ffic
ornés
rural
méthodique
##athie
DÉCEMBRE
GUER
##èa
Dauphine
vérita
MACHINES
aimant
##Di
##OBILE
rî
équivalent
PROCH
causait
Gazelle
##airo
diront
violé
intel
Galeries
ratifié
desserv
hait
copies
VOTRE
uk
gions
##■■■■
Dég
Maux
traves
ÏÏ
CITROEN
Brahms
monts
##oid
##RB
vermeil
##tillerie
Cà
##clame
marais
tchécoslova
Grammont
DAT
impérieux
dégén
TRIBUN
ébau
##vm
Chevaux
spécialités
pére
Morgan
##MACIE
trahir
pianos
##èur
inattendu
acharnement
##IJ
812
##diennes
secour
##orgue
Edgar
##jar
caric
##owns
QUATRE
##IVERS
Hindenburg
lection
réhab
vire
clocher
incohé
conter
parfums
##NEE
UM
contredit
flottille
Ghe
tèrent
DIX
interpella
dévast
Mozambique
affranchie
trancher
tile
autonom
élança
Platine
git
évalué
BOI
indisposition
VILLA
Expositions
ey
excité
accusa
ancre
aggraver
sensi
Thibault
lacs
ÉLECT
Bisc
Méthode
spontané
##cheté
cigarettes
Cure
turb
##acées
choi
iro
Jen
enfantine
Creuse
gais
sati
##mié
546
808
pulmon
rehauss
osait
respondant
Rostand
##apé
Rè
mies
appliquées
##oq
chats
constituait
Siegf
Agu
charretier
prêtent
cédant
##beer
cotisation
APPARTEMENTS
avide
ipar
volailles
déroute
##ensions
SEMAINE
gloires
##bank
infligé
##alter
remonté
£r
timents
Mode
oont
techniciens
Peyr
alph
##meni
diamètre
demis
pàs
élar
inouïe
##ticisme
eurs
percer
fronts
maternelle
657
Cotte
intervalles
rampe
protec
Rameau
TRAITE
##anco
superfic
Barthol
prononcera
géographique
##isep
scr
ift
Combe
##queries
15°
culièrement
ESCOMPTE
Dela
pénétrant
composées
traitant
retardé
diviser
allumé
Malin
Hauteur
Tric
598
talents
Kat
Métall
respectueuse
ANCIENS
miroir
Restauration
abnégation
##pii
flottante
1030
anecdote
relle
male
racine
assiég
uniformes
fraternelle
##obert
extrémités
respiration
impériales
##gat
##eler
Théo
##rei
porto
##teil
menton
particuliè
Gaby
brique
seconder
##ëe
bavard
Excel
ué
ORLÉ
plir
TOR
ruraux
plâtre
##irages
Westminster
égoïsme
molles
Chambéry
torts
nationalités
ün
Yvon
VJ
avantageuses
hém
expire
##fuge
S4
##xa
##got
##ampes
étendus
faillites
Semblât
Djibouti
##ffetas
##mentier
NAT
Charron
faisais
##elos
carreau
sif
Moss
bizar
##AYS
sphère
cruauté
TROU
##DB
payait
confiant
aidant
Douze
Fabric
annoncées
Simp
préférences
perma
poulet
installa
HONG
dü
brac
##ABLISSEMENTS
##DC
Spar
##ruct
rivale
hellénique
champignons
efi
dens
UO
liquidateur
envoyait
natal
tç
##orif
infan
victorieux
ria
tât
qx
sque
menter
nte
Franoe
##berger
##gol
Cardinal
pensionnaire
##gure
claration
literie
Concordat
confirment
lT
patrimoine
Square
1050
aiguë
fusillade
toiture
Bailly
Niv
##ÊT
talon
èi
ree
dante
##asc
publions
##hire
réconciliation
servis
accrue
avançait
envahis
Salam
##aiii
Canadian
maig
évalués
récom
##ayel
##aven
éloquente
ticulièrement
Nickel
##atiou
instituée
662
embarrassé
VOI
apéri
corvette
772
gardant
dien
763
Még
plaider
Sauss
Comé
expertise
envisagée
##gè
communica
French
rants
Ninon
haï
égoïs
prient
##jle
comtes
Emin
repartir
Moutons
##ouen
##dicateur
##ISSEMENT
strict
organisateur
durement
favorisée
défendue
##vén
rard
Perrier
casino
prodigieuse
Tels
##guin
surveil
présentants
concour
##iou
Financière
agis
tambours
##attants
cialistes
##uvre
##wehr
prune
possé
##îc
##odge
##puscule
hiérarchie
puér
Spir
tradi
couplets
égaux
présentaient
vailleurs
pâr
##lï
##isons
Courtois
composait
Nig
##chk
publiera
##tron
##éon
récipro
irréprochable
limp
écarts
familier
conservant
666
##ARDS
moustache
Continental
##ppi
approfon
fluctuations
Kol
##jS
abattoirs
Water
naïveté
pâles
Siegfried
Frag
##UO
marqués
767
Boris
rancune
##blay
pensais
emprunté
Flore
africaine
##ohs
dressés
qùi
insom
monarque
##amet
démocratiques
guillo
modifie
substant
étendues
absents
##urez
Nicole
ARRIV
sacrifié
chass
amas
Aile
mailles
Neuville
##CHOU
reprennent
tract
reprenant
##pis
Violette
renverse
barrières
enchanté
##3S
jonction
Dri
##ily
ciétés
Lorlent
écoulée
Ateliers
##nia
##hommes
PROGRAM
Valpar
soulè
Asturies
entendez
longe
##àrd
insensible
Suisses
persistance
fournisseur
##luie
Niger
Massi
courtis
##üt
angoisses
dte
accessit
agréablement
##icle
##aissaient
Bouchard
amiraux
terrestre
accommod
distances
##oncée
plaines
direz
solitaire
nand
Atelier
Dardan
##ospec
psychologie
From
partiront
limit
CHAMPS
infatigable
élégants
gements
Match
dft
recommandons
Bô
sill
associe
fices
tranquilles
transmise
sations
implacable
chie
Pensions
congés
Mandch
Oo
alentours
tares
652
légué
pôts
dockers
##ceuse
Vaut
##buti
Orientales
##ènera
##bier
##rimées
funèbres
Cross
Blancs
fable
Sais
Lorrain
040
Lacour
MAX
tarde
kgs
##ély
gny
##cler
##euve
POP
naïf
apporta
EV
abaisser
INTERN
rri
indiquait
Saison
##98
dogme
##ucin
Bray
iio
##vic
Veau
slave
répétons
funestes
##ostic
pipes
Etran
l2
butin
empressés
déposa
##kal
présentations
##uli
savante
pement
##OCK
danseurs
successeurs
betteraves
Furs
lave
Pins
miel
##mg
draient
balné
riel
parade
Amir
bric
doléances
Ecoutez
FONT
pentes
cherté
Mê
##iui
Etudi
fortun
Pigalle
cachait
dispense
supers
scandales
Andrieux
apercevant
escar
vance
##hil
tuyau
intéressée
Pc
artil
Assomption
rieures
tio
##évy
tardive
Sibérie
Fun
Impératrice
■C
quences
cauche
décon
Sait
rif
brièvement
utilisé
##bent
Delahaye
devienne
furieuse
##iosités
mouillé
HAB
académique
Germ
romanes
cinquant
sourcils
CONCERT
patronne
pendule
VINC
existantes
insigne
##enois
ENT
##êches
Souvenirs
entraver
sacre
CAISSE
Tsar
expriment
aptitudes
positif
conférencier
merveilleuses
conformes
Caucase
Cho
paro
Fonten
EE
pots
##enda
##ancing
secon
Foi
aucunement
fondés
##USS
Lanterne
blié
fourniture
Mign
1Q
##jor
donnerons
surveillant
##airage
Ronde
luxueux
Aima
Braz
apercevait
fiè
assertion
##Ls
Pam
##agh
Hn
Georgette
consciences
Lalo
martyr
verneur
répandus
anticlé
Navig
infâme
Quatuor
adi
BIJOUX
mêlés
bb
charmants
Poir
##ITÉS
##Uer
exhibition
Para
Denain
##itl
Delam
Teste
établissent
LIBRAIRIE
attir
misé
Otto
901
ASSURANCES
##yt
veillance
##34
acquéreur
##ognes
médiocres
##anca
pide
milice
Associations
##faire
bourreau
SK
dono
cueilli
Durée
rousse
passeront
transporte
fabriqué
Antibes
conspiration
##êques
##hédive
sho
espérant
charrette
636
bau
##léan
incapacité
discrètement
touches
##duld
BÉ
formées
porteront
Facultés
Gillet
oin
signées
perfectionnement
Séver
##endé
impeccable
ines
inaugurée
Handicap
##lais
survivants
formidables
075
genou
facilite
591
entresol
Palmer
##isit
♦♦♦
qualifier
laborieux
681
##issaires
descendus
lassitude
opposent
perspectives
Desm
lté
qm
agirait
déclin
##SSS
##mès
un©
##ouettes
Quoti
merveil
##leau
préfec
datent
##qùe
Delorme
appréhen
satisfaisantes
Jagers
##hèse
##dee
ferma
stupide
Cordoue
dises
placements
résignation
626
##belle
##sia
##uto
cruelles
antagon
##yons
##gham
ASSOCI
téléphoniques
conservatrice
FAMILLE
merie
pm
humidité
Sucreries
Foul
dormait
SYNDIC
Angèle
sovie
Cheminots
pince
reposent
agrégé
ets
702
2G
Fernande
682
Forest
Dernières
Verneuil
##ania
bruts
écarte
Hauteville
siir
lumineuse
##azes
formait
qae
Bè
Salles
##pm
##adre
variation
Johnson
lames
HYPOT
brûlée
##otés
717
PRA
Coton
guérie
Laborde
##vins
pile
rech
intenté
Anac
plates
REGION
palmes
arth
deviné
ruiné
trique
##oulin
nnn
volumine
exactes
street
##fèvrerie
diner
grimp
##rales
conclue
XVII
péninsule
##itive
italo
embarquement
marie
Carol
tablier
Hippodrome
##ioe
MISE
proviennent
##lius
invraisemblable
Ft
lem
haras
api
plique
##oiu
inch
##eta
Proust
pite
précèdent
graphe
rides
panneaux
diz
coude
Plage
logés
mesu
signalées
##imum
Beni
Phén
lous
Hennes
Electrique
enrayer
##gno
plier
Poids
citadelle
rhume
intellectuels
Thié
##CR
supprimée
authenticité
imprudent
fif
Béarn
Foin
##hof
##CLAR
Install
Frib
##arres
##vii
mathématiques
Marianne
##illl
léon
richement
Courte
##esson
annales
extraor
brisa
Grass
superflu
meurent
Papa
##OPE
piqué
Sum
703
Stella
corr
paupières
663
##ocrate
##entation
arriveront
lal
888
vaillante
bassins
occasionné
CPT
quittent
GRATUITE
##MER
gains
##BY
##arement
nota
Cod
saumon
cetto
Emer
Beauregard
bijouterie
apôtres
baraque
avantageuse
Pampelune
Estomac
offrira
Dié
nipp
##nac
circule
Souvent
##APE
dactyl
##pés
##asa
partiel
attelage
désignée
dyspe
mécontent
restante
laissaient
calculé
##lim
##IEUR
Lauri
##miii
zo
cielle
PHARMACIE
Bov
accompagnent
rencontrera
découverts
##osités
malles
compromise
chées
réponds
désarroi
haussé
##allon
##qae
Chauvin
##umin
affre
quette
chaudes
athlétisme
expliquent
liards
Individ
##VT
761
MICHEL
hélice
Tig
lB
gnies
##fsa
Paule
Trot
##ramides
actrice
##ppelin
##times
Bastia
Calvaire
vétérans
##tah
tuent
##île
légiste
régence
signalent
Poulain
##ifiés
Fron
Alh
##sez
adressons
retraités
Crém
Oly
blâmer
perçu
réservoir
ORLÉANS
malen
évaluer
Généraux
LETTRES
RESTAURANT
somptueux
##xs
fléchit
cû
Bap
5®
plages
##OSSE
disponibilité
Parfois
scs
tui
relevant
##usset
fasci
emparé
sap
##êi
levait
naïve
bale
institutrices
718
Péch
néfaste
anté
##FFEL
écrié
assurait
Bagdad
Eph
Sorel
586
Artois
lointains
TIRAGE
sauce
dénonce
impossi
GEORGES
##metz
EGY
Fanny
Bigot
DAV
trouveraient
##IDE
##WE
##ursions
nomie
désignées
Perier
rattache
grange
Sauf
gueurs
disposent
Ouvriers
##logerie
flui
météorologique
Réc
##tiou
répétait
##adin
TÉLÉGRAPH
dires
présidentielle
abe
J3
##uela
cotons
emmener
Berteaux
##chauts
recrues
##UK
dixièmes
fragment
cuire
pha
##QO
Garage
aéroplanes
##tuel
Loucheur
marines
Sels
VEL
créant
nade
##wich
SOUSCRI
serra
garnisons
entourés
mill
Triple
visibles
##cif
CHEVAUX
blesser
mariniers
noyés
accroît
Hoffmann
noix
cessi
##montant
Werther
raisins
recueillie
Spr
651
Baldwin
Désormais
l3
Tib
Jum
prétendus
dàns
profon
silencieuse
enrô
Morte
motivée
Plantes
Mounet
dépouillé
##ester
draperie
muette
convenance
trép
Claretie
vantage
Noua
Mendelss
semblerait
contenues
##Pi
except
avisés
##MARTRE
Pert
##orl
align
pliquer
capturé
##omé
##fiante
transforme
liquider
##INCE
8i
pouvions
dtt
humili
Dictionnaire
##JT
Municipal
prélats
##iite
salua
##fent
##jot
LAR
attaquent
Dc
Dufaure
one
NICE
SIM
trat
HISTOIRE
débouchés
##raux
Cassagnac
écoliers
Stanley
Jugement
hydravion
maîtresses
711
gnons
##TITUT
Kur
##çal
violoniste
entendons
ensanglant
fourgon
pulation
secteurs
dissimule
##XS
grossir
BLE
ressemblent
fure
##iau
gardée
réputé
implique
inquiétant
##issables
Duches
aint
##tina
hn
##ossard
distribue
Bouc
invoque
678
Ajaccio
INTÉ
serrurier
Gouraud
Mauv
affecte
##IK
radioph
677
incline
Chambord
offens
Métal
décadence
##lE
guider
Taill
Station
retrouvent
stratégique
Ress
riposte
promul
CASINO
puy
complexe
cambriolage
708
tainement
Route
suscité
néer
ieur
Colombier
avancent
##iem
##BRES
##èro
oons
sarrasin
Gaveau
Dart
captivité
méchant
619
présentement
récompenser
abandonnant
thèses
rein
assoup
##ectorale
naud
médicaments
sentier
Creusot
të
##lès
uj
inoc
sex
FÉVRIER
BRON
bouts
Tirage
atteignait
Auray
monast
seph
vière
Modes
lument
danseuses
##aiion
poë
agissent
Omer
guir
relevées
lnstruction
Aurore
gaiement
britanni
574
incombe
bourgmestre
Lemaître
##ecker
flans
##ursion
crire
641
aeu
ARTH
Cari
##ield
##auce
BREST
##orit
##noy
Législ
infliger
truire
##DITIONS
satisfaite
##briant
reille
Rouges
MATINE
##asso
757
Just
Loz
aisée
minorités
Edison
Ancienne
compréh
CLOT
##adine
Manchester
Falaise
écossais
671
[...]
